{"merges": [["t", "h"], ["e", "s"], ["r", "e"], ["i", "n"], ["th", "e"], ["es", "s"], ["i", "s"], ["e", "r"], ["a", "n"], ["h", "e"], ["a", "r"], ["u", "s"], ["o", "n"], ["a", "t"], ["l", "y"], ["in", "g"], ["i", "t"], ["c", "a"], ["re", "a"], ["t", "o"], ["a", "m"], ["i", "l"], ["c", "t"], ["ca", "us"], ["n", "ess"], ["l", "ess"], ["rea", "th"], ["an", "d"], ["reath", "less"], ["reathless", "ness"], ["e", "."], ["b", "reathlessness"], ["caus", "es"], ["d", "u"], ["b", "u"], ["o", "u"], ["l", "e"], ["m", "o"], ["h", "i"], ["e", "n"], ["a", "s"], ["r", "o"], ["d", "i"], ["u", "n"], ["o", "f"], ["ct", "ly"], ["a", "g"], ["a", "l"], ["d", "am"], ["dam", "ag"], ["di", "re"], ["un", "g"], ["in", "dire"], ["indire", "ctly"], ["l", "ung"], ["bu", "il"], ["buil", "du"], ["buildu", "p"], ["c", "h"], ["k", "ing"], ["w", "e"], ["p", "ro"], ["e", "x"], ["s", "e"], ["breathlessness", "."], ["T", "he"], ["a", "d"], ["s", "o"], ["t", "ar"], ["en", "t"], ["is", "e"], ["i", "on"], ["hi", "ch"], ["o", "r"], ["g", "h"], ["e", "t"], ["S", "mo"], ["Smo", "king"], ["damag", "e."], ["v", "i"], ["b", "it"], ["th", "at"], ["hi", "bit"], ["e", "d"], ["o", "w"], ["le", "ad"], ["in", "hibit"], ["y", "ou"], ["lead", "s"], ["vi", "a"], ["pro", "mo"], ["promo", "t"], ["er", "c"], ["th", "is"], ["ex", "erc"], ["ar", "t"], ["s", "t"], ["b", "e"], ["al", "th"], ["i", "gh"], ["he", "alth"], ["v", "e"], ["health", "."], ["r", "n"], ["u", "l"], ["l", "o"], ["damag", "e"], ["c", "o"], ["buildup", "."], ["c", "e"], ["h", "a"], ["n", "d"], ["v", "er"], ["m", "e"], ["c", "an"], ["il", "l"], ["the", "r"], ["as", "e."], ["f", "o"], ["he", "art"], ["d", "ise"], ["dise", "ase."], ["w", "hich"], ["q", "u"], ["o", "t"], ["re", ","], ["A", "nd"], ["r", "es"], ["T", "h"], ["du", "c"], ["b", "lo"], ["c", "king"], ["t", "u"], ["inhibit", "s"], ["blo", "cking"], ["promot", "er"], ["k", "g"], ["w", "h"], ["Th", "is"], ["ha", "ve"], ["ly", ","], ["at", "er"], ["f", "l"], ["The", "re"], ["i", "m"], ["i", "r"], ["w", "i"], ["c", "and"], ["w", "ill"], ["we", "igh"], ["t", ","], ["fo", "re,"], ["T", "ar"], ["w", "ater"], ["k", "e"], ["W", "hich"], ["o", "ther"], ["duc", "es"], ["am", "e"], ["is", "e."], ["i", "d"], ["re", "duces"], ["exerc", "ise"], ["There", "fore,"], ["exerc", "ise."], ["on", "se"], ["onse", "qu"], ["us", "t"], ["t", "a"], ["a", "y"], ["onsequ", "ent"], ["c", "on"], ["C", "onsequent"], ["Consequent", "ly,"], ["res", "ul"], ["I", "n"], ["wh", "at"], ["tu", "rn"], ["Y", "et"], ["u", "t"], ["al", "l"], ["n", "ot"], ["kg", "."], ["f", "or"], ["u", "p"], ["se", "e"], ["a", "p"], ["A", "s"], ["b", "y"], ["turn", ","], ["resul", "t,"], ["promot", "es"], ["inhibit", "ion"], ["ou", "t"], ["i", "f"], ["wi", "th"], ["co", "m"], ["ent", "s"], ["s", "u"], ["cand", "le"], ["bu", "rn"], ["w", "he"], ["fl", "ame"], ["p", "l"], ["a", "re"], ["p", "re"], ["n", "ow"], ["i", "c"], ["p", "er"], ["ou", "r"], ["ro", "m"], ["f", "rom"], ["h", "and"], ["l", "d"], ["p", "o"], ["igh", "t"], ["ver", ","], ["pre", "v"], ["prev", "ents"], ["t", "er"], ["a", "ct"], ["v", "es"], ["o", "we"], ["owe", "ver,"], ["e", "l"], ["a", "b"], ["u", "r"], ["in", "to"], ["O", "n"], ["c", "er"], ["p", "h"], ["hand", ","], ["th", "ing"], ["H", "owever,"], ["a", "ir"], ["m", "a"], ["l", "es"], ["bu", "t"], ["in", "d"], ["on", "e"], ["ex", "a"], ["exa", "ctly"], ["weigh", "s"], ["an", "t"], ["c", "he"], ["d", "o"], ["p", "art"], ["s", "h"], ["a", "c"], ["g", "o"], ["ou", "gh"], ["he", "re"], ["f", "e"], ["u", "m"], ["ver", "y"], ["at", "ion"], ["im", "pro"], ["impro", "ves"], ["whe", "n"], ["the", "re"], ["st", "an"], ["com", "b"], ["p", "e"], ["st", "e"], ["es", "e"], ["t", "le"], ["su", "b"], ["comb", "ust"], ["l", "l"], ["s", ","], ["can", "cer"], ["cancer", "."], ["t", "r"], ["l", "it"], ["a", "h"], ["o", "us"], ["an", "g"], ["g", "en"], ["w", "ay"], ["so", "me"], ["che", "et"], ["cheet", "ah"], ["l", "ight"], ["d", "er"], ["the", "y"], ["lit", "tle"], ["ta", "ke"], ["s", "."], ["m", "."], ["s", "he"], ["it", "s"], ["th", "ese"], ["rea", "ch"], ["m", "ay"], ["en", "d"], ["w", "as"], ["i", "g"], ["h", "as"], ["sub", "stan"], ["act", "ion"], ["s", "id"], ["she", "w"], ["p", "ut"], ["f", "fe"], ["r", "a"], ["Y", "ou"], ["g", "et"], ["d", "e"], ["n", "t"], ["l", "as"], ["l", "i"], ["combust", "ion"], ["caus", "e"], ["g", "as"], ["h", "o"], ["the", "m"], ["sh", "all"], ["I", "t"], ["ta", "in"], ["at", "e"], ["h", "y"], ["so", "l"]], "vocab": {" ": 0, "!": 1, "&": 2, "(": 3, ")": 4, ",": 5, "-": 6, ".": 7, "0": 8, "1": 9, "2": 10, "3": 11, "4": 12, "5": 13, "6": 14, "7": 15, "8": 16, "9": 17, ":": 18, ";": 19, "?": 20, "A": 21, "B": 22, "C": 23, "D": 24, "E": 25, "F": 26, "G": 27, "H": 28, "I": 29, "J": 30, "K": 31, "L": 32, "M": 33, "N": 34, "O": 35, "P": 36, "R": 37, "S": 38, "T": 39, "U": 40, "V": 41, "W": 42, "X": 43, "Y": 44, "[": 45, "]": 46, "_": 47, "a": 48, "b": 49, "c": 50, "d": 51, "e": 52, "f": 53, "g": 54, "h": 55, "i": 56, "j": 57, "k": 58, "l": 59, "m": 60, "n": 61, "o": 62, "p": 63, "q": 64, "r": 65, "s": 66, "t": 67, "u": 68, "v": 69, "w": 70, "x": 71, "y": 72, "z": 73, "\u2014": 74, "\u2019": 75, "\u201c": 76, "\u201d": 77, "th": 78, "es": 79, "re": 80, "in": 81, "the": 82, "ess": 83, "is": 84, "er": 85, "an": 86, "he": 87, "ar": 88, "us": 89, "on": 90, "at": 91, "ly": 92, "ing": 93, "it": 94, "ca": 95, "rea": 96, "to": 97, "am": 98, "il": 99, "ct": 100, "caus": 101, "ness": 102, "less": 103, "reath": 104, "and": 105, "reathless": 106, "reathlessness": 107, "e.": 108, "breathlessness": 109, "causes": 110, "du": 111, "bu": 112, "ou": 113, "le": 114, "mo": 115, "hi": 116, "en": 117, "as": 118, "ro": 119, "di": 120, "un": 121, "of": 122, "ctly": 123, "ag": 124, "al": 125, "dam": 126, "damag": 127, "dire": 128, "ung": 129, "indire": 130, "indirectly": 131, "lung": 132, "buil": 133, "buildu": 134, "buildup": 135, "ch": 136, "king": 137, "we": 138, "pro": 139, "ex": 140, "se": 141, "breathlessness.": 142, "The": 143, "ad": 144, "so": 145, "tar": 146, "ent": 147, "ise": 148, "ion": 149, "hich": 150, "or": 151, "gh": 152, "et": 153, "Smo": 154, "Smoking": 155, "damage.": 156, "vi": 157, "bit": 158, "that": 159, "hibit": 160, "ed": 161, "ow": 162, "lead": 163, "inhibit": 164, "you": 165, "leads": 166, "via": 167, "promo": 168, "promot": 169, "erc": 170, "this": 171, "exerc": 172, "art": 173, "st": 174, "be": 175, "alth": 176, "igh": 177, "health": 178, "ve": 179, "health.": 180, "rn": 181, "ul": 182, "lo": 183, "damage": 184, "co": 185, "buildup.": 186, "ce": 187, "ha": 188, "nd": 189, "ver": 190, "me": 191, "can": 192, "ill": 193, "ther": 194, "ase.": 195, "fo": 196, "heart": 197, "dise": 198, "disease.": 199, "which": 200, "qu": 201, "ot": 202, "re,": 203, "And": 204, "res": 205, "Th": 206, "duc": 207, "blo": 208, "cking": 209, "tu": 210, "inhibits": 211, "blocking": 212, "promoter": 213, "kg": 214, "wh": 215, "This": 216, "have": 217, "ly,": 218, "ater": 219, "fl": 220, "There": 221, "im": 222, "ir": 223, "wi": 224, "cand": 225, "will": 226, "weigh": 227, "t,": 228, "fore,": 229, "Tar": 230, "water": 231, "ke": 232, "Which": 233, "other": 234, "duces": 235, "ame": 236, "ise.": 237, "id": 238, "reduces": 239, "exercise": 240, "Therefore,": 241, "exercise.": 242, "onse": 243, "onsequ": 244, "ust": 245, "ta": 246, "ay": 247, "onsequent": 248, "con": 249, "Consequent": 250, "Consequently,": 251, "resul": 252, "In": 253, "what": 254, "turn": 255, "Yet": 256, "ut": 257, "all": 258, "not": 259, "kg.": 260, "for": 261, "up": 262, "see": 263, "ap": 264, "As": 265, "by": 266, "turn,": 267, "result,": 268, "promotes": 269, "inhibition": 270, "out": 271, "if": 272, "with": 273, "com": 274, "ents": 275, "su": 276, "candle": 277, "burn": 278, "whe": 279, "flame": 280, "pl": 281, "are": 282, "pre": 283, "now": 284, "ic": 285, "per": 286, "our": 287, "rom": 288, "from": 289, "hand": 290, "ld": 291, "po": 292, "ight": 293, "ver,": 294, "prev": 295, "prevents": 296, "ter": 297, "act": 298, "ves": 299, "owe": 300, "owever,": 301, "el": 302, "ab": 303, "ur": 304, "into": 305, "On": 306, "cer": 307, "ph": 308, "hand,": 309, "thing": 310, "However,": 311, "air": 312, "ma": 313, "les": 314, "but": 315, "ind": 316, "one": 317, "exa": 318, "exactly": 319, "weighs": 320, "ant": 321, "che": 322, "do": 323, "part": 324, "sh": 325, "ac": 326, "go": 327, "ough": 328, "here": 329, "fe": 330, "um": 331, "very": 332, "ation": 333, "impro": 334, "improves": 335, "when": 336, "there": 337, "stan": 338, "comb": 339, "pe": 340, "ste": 341, "ese": 342, "tle": 343, "sub": 344, "combust": 345, "ll": 346, "s,": 347, "cancer": 348, "cancer.": 349, "tr": 350, "lit": 351, "ah": 352, "ous": 353, "ang": 354, "gen": 355, "way": 356, "some": 357, "cheet": 358, "cheetah": 359, "light": 360, "der": 361, "they": 362, "little": 363, "take": 364, "s.": 365, "m.": 366, "she": 367, "its": 368, "these": 369, "reach": 370, "may": 371, "end": 372, "was": 373, "ig": 374, "has": 375, "substan": 376, "action": 377, "sid": 378, "shew": 379, "put": 380, "ffe": 381, "ra": 382, "You": 383, "get": 384, "de": 385, "nt": 386, "las": 387, "li": 388, "combustion": 389, "cause": 390, "gas": 391, "ho": 392, "them": 393, "shall": 394, "It": 395, "tain": 396, "ate": 397, "hy": 398, "sol": 399}, "itos": {"0": " ", "1": "!", "2": "&", "3": "(", "4": ")", "5": ",", "6": "-", "7": ".", "8": "0", "9": "1", "10": "2", "11": "3", "12": "4", "13": "5", "14": "6", "15": "7", "16": "8", "17": "9", "18": ":", "19": ";", "20": "?", "21": "A", "22": "B", "23": "C", "24": "D", "25": "E", "26": "F", "27": "G", "28": "H", "29": "I", "30": "J", "31": "K", "32": "L", "33": "M", "34": "N", "35": "O", "36": "P", "37": "R", "38": "S", "39": "T", "40": "U", "41": "V", "42": "W", "43": "X", "44": "Y", "45": "[", "46": "]", "47": "_", "48": "a", "49": "b", "50": "c", "51": "d", "52": "e", "53": "f", "54": "g", "55": "h", "56": "i", "57": "j", "58": "k", "59": "l", "60": "m", "61": "n", "62": "o", "63": "p", "64": "q", "65": "r", "66": "s", "67": "t", "68": "u", "69": "v", "70": "w", "71": "x", "72": "y", "73": "z", "74": "\u2014", "75": "\u2019", "76": "\u201c", "77": "\u201d", "78": "th", "79": "es", "80": "re", "81": "in", "82": "the", "83": "ess", "84": "is", "85": "er", "86": "an", "87": "he", "88": "ar", "89": "us", "90": "on", "91": "at", "92": "ly", "93": "ing", "94": "it", "95": "ca", "96": "rea", "97": "to", "98": "am", "99": "il", "100": "ct", "101": "caus", "102": "ness", "103": "less", "104": "reath", "105": "and", "106": "reathless", "107": "reathlessness", "108": "e.", "109": "breathlessness", "110": "causes", "111": "du", "112": "bu", "113": "ou", "114": "le", "115": "mo", "116": "hi", "117": "en", "118": "as", "119": "ro", "120": "di", "121": "un", "122": "of", "123": "ctly", "124": "ag", "125": "al", "126": "dam", "127": "damag", "128": "dire", "129": "ung", "130": "indire", "131": "indirectly", "132": "lung", "133": "buil", "134": "buildu", "135": "buildup", "136": "ch", "137": "king", "138": "we", "139": "pro", "140": "ex", "141": "se", "142": "breathlessness.", "143": "The", "144": "ad", "145": "so", "146": "tar", "147": "ent", "148": "ise", "149": "ion", "150": "hich", "151": "or", "152": "gh", "153": "et", "154": "Smo", "155": "Smoking", "156": "damage.", "157": "vi", "158": "bit", "159": "that", "160": "hibit", "161": "ed", "162": "ow", "163": "lead", "164": "inhibit", "165": "you", "166": "leads", "167": "via", "168": "promo", "169": "promot", "170": "erc", "171": "this", "172": "exerc", "173": "art", "174": "st", "175": "be", "176": "alth", "177": "igh", "178": "health", "179": "ve", "180": "health.", "181": "rn", "182": "ul", "183": "lo", "184": "damage", "185": "co", "186": "buildup.", "187": "ce", "188": "ha", "189": "nd", "190": "ver", "191": "me", "192": "can", "193": "ill", "194": "ther", "195": "ase.", "196": "fo", "197": "heart", "198": "dise", "199": "disease.", "200": "which", "201": "qu", "202": "ot", "203": "re,", "204": "And", "205": "res", "206": "Th", "207": "duc", "208": "blo", "209": "cking", "210": "tu", "211": "inhibits", "212": "blocking", "213": "promoter", "214": "kg", "215": "wh", "216": "This", "217": "have", "218": "ly,", "219": "ater", "220": "fl", "221": "There", "222": "im", "223": "ir", "224": "wi", "225": "cand", "226": "will", "227": "weigh", "228": "t,", "229": "fore,", "230": "Tar", "231": "water", "232": "ke", "233": "Which", "234": "other", "235": "duces", "236": "ame", "237": "ise.", "238": "id", "239": "reduces", "240": "exercise", "241": "Therefore,", "242": "exercise.", "243": "onse", "244": "onsequ", "245": "ust", "246": "ta", "247": "ay", "248": "onsequent", "249": "con", "250": "Consequent", "251": "Consequently,", "252": "resul", "253": "In", "254": "what", "255": "turn", "256": "Yet", "257": "ut", "258": "all", "259": "not", "260": "kg.", "261": "for", "262": "up", "263": "see", "264": "ap", "265": "As", "266": "by", "267": "turn,", "268": "result,", "269": "promotes", "270": "inhibition", "271": "out", "272": "if", "273": "with", "274": "com", "275": "ents", "276": "su", "277": "candle", "278": "burn", "279": "whe", "280": "flame", "281": "pl", "282": "are", "283": "pre", "284": "now", "285": "ic", "286": "per", "287": "our", "288": "rom", "289": "from", "290": "hand", "291": "ld", "292": "po", "293": "ight", "294": "ver,", "295": "prev", "296": "prevents", "297": "ter", "298": "act", "299": "ves", "300": "owe", "301": "owever,", "302": "el", "303": "ab", "304": "ur", "305": "into", "306": "On", "307": "cer", "308": "ph", "309": "hand,", "310": "thing", "311": "However,", "312": "air", "313": "ma", "314": "les", "315": "but", "316": "ind", "317": "one", "318": "exa", "319": "exactly", "320": "weighs", "321": "ant", "322": "che", "323": "do", "324": "part", "325": "sh", "326": "ac", "327": "go", "328": "ough", "329": "here", "330": "fe", "331": "um", "332": "very", "333": "ation", "334": "impro", "335": "improves", "336": "when", "337": "there", "338": "stan", "339": "comb", "340": "pe", "341": "ste", "342": "ese", "343": "tle", "344": "sub", "345": "combust", "346": "ll", "347": "s,", "348": "cancer", "349": "cancer.", "350": "tr", "351": "lit", "352": "ah", "353": "ous", "354": "ang", "355": "gen", "356": "way", "357": "some", "358": "cheet", "359": "cheetah", "360": "light", "361": "der", "362": "they", "363": "little", "364": "take", "365": "s.", "366": "m.", "367": "she", "368": "its", "369": "these", "370": "reach", "371": "may", "372": "end", "373": "was", "374": "ig", "375": "has", "376": "substan", "377": "action", "378": "sid", "379": "shew", "380": "put", "381": "ffe", "382": "ra", "383": "You", "384": "get", "385": "de", "386": "nt", "387": "las", "388": "li", "389": "combustion", "390": "cause", "391": "gas", "392": "ho", "393": "them", "394": "shall", "395": "It", "396": "tain", "397": "ate", "398": "hy", "399": "sol"}}