{"merges": [["t", "h"], ["th", "e"], ["i", "n"], ["r", "e"], ["a", "n"], ["a", "t"], ["e", "s"], ["i", "s"], ["e", "r"], ["o", "n"], ["o", "u"], ["i", "t"], ["an", "d"], ["o", "f"], ["e", "n"], ["t", "o"], ["a", "r"], ["a", "s"], ["in", "g"], ["l", "l"], ["h", "e"], ["s", "e"], ["l", "e"], ["i", "c"], ["w", "h"], ["m", "e"], ["b", "u"], ["s", "t"], ["r", "o"], ["o", "r"], ["es", "s"], ["l", "y"], ["o", "w"], ["w", "i"], ["th", "at"], ["c", "t"], ["y", "ou"], ["h", "a"], ["e", "d"], ["b", "e"], ["v", "e"], ["o", "t"], ["w", "e"], ["m", "a"], ["c", "e"], ["i", "on"], ["s", "o"], ["a", "l"], ["c", "o"], ["i", "r"], ["ic", "h"], ["e", "x"], ["g", "e"], ["u", "p"], ["en", "t"], ["wh", "ich"], ["th", "is"], ["u", "s"], ["c", "a"], ["l", "d"], ["s", "u"], ["t", "a"], ["p", "ro"], ["g", "h"], ["ha", "ve"], ["d", "i"], ["u", "n"], ["wi", "ll"], ["re", "a"], ["the", "r"], ["he", "re"], ["v", "er"], ["l", "a"], ["m", "o"], ["i", "d"], ["k", "e"], ["n", "ess"], ["r", "n"], ["b", "rea"], ["l", "ess"], ["brea", "th"], ["b", "y"], ["less", "ness"], ["n", "ot"], ["breath", "lessness"], ["f", "or"], ["at", "er"], ["p", "er"], ["ct", "ly"], ["u", "t"], ["wi", "th"], ["l", "i"], ["se", "e"], ["co", "m"], ["is", "e"], ["w", "ater"], ["us", "es"], ["c", "and"], ["c", "h"], ["ca", "uses"], ["a", "d"], ["a", "ir"], ["c", "on"], ["g", "en"], ["bu", "rn"], ["u", "m"], ["ar", "t"], ["i", "m"], ["c", "an"], ["d", "u"], ["ou", "t"], ["o", "ther"], ["n", "ow"], ["k", "ing"], ["i", "f"], ["gh", "t"], ["cand", "le"], ["d", "a"], ["a", "re"], ["un", "g"], ["p", "o"], ["di", "re"], ["ou", "r"], ["i", "ld"], ["dire", "ctly"], ["bu", "ild"], ["in", "directly"], ["build", "up"], ["da", "ma"], ["ro", "m"], ["dama", "ge"], ["f", "rom"], ["u", "r"], ["l", "ung"], ["in", "to"], ["a", "m"], ["a", "p"], ["c", "ar"], ["n", "d"], ["a", "ll"], ["wh", "at"], ["s", "a"], ["s", ","], ["le", "ad"], ["f", "o"], ["q", "u"], ["bu", "t"], ["on", "e"], ["it", "s"], ["l", "o"], ["i", "b"], ["t", "ar"], ["d", "e"], ["a", "ct"], ["u", "st"], ["c", "es"], ["f", "la"], ["breathlessness", "."], ["p", "re"], ["er", "c"], ["s", "p"], ["a", "b"], ["w", "a"], ["g", "o"], ["th", "ing"], ["fla", "me"], ["b", "on"], ["car", "bon"], ["erc", "ise"], ["ver", "y"], ["ex", "ercise"], ["the", "re"], ["e", "t"], ["p", "i"], ["d", "o"], ["st", "an"], ["l", "at"], ["e", "re"], ["a", "c"], ["t", "u"], ["t", "er"], ["u", "se"], ["o", "x"], ["p", "art"], ["in", "d"], ["v", "es"], ["t", "le"], ["pro", "du"], ["lead", "s"], ["y", ","], ["fo", "re"], ["S", "mo"], ["Smo", "king"], ["i", "l"], ["g", "as"], ["su", "b"], ["f", "u"], ["T", "h"], ["v", "i"], ["at", "ion"], ["e", "ct"], ["wh", "en"], ["T", "he"], ["com", "bu"], ["combu", "st"], ["l", "t"], ["d", "er"], ["ou", "gh"], ["y", "gen"], ["l", "es"], ["f", "f"], ["ta", "ke"], ["as", "e"], ["s", "he"], ["l", "it"], ["ox", "ygen"], ["so", "me"], ["ou", "ld"], ["lit", "tle"], ["she", "w"], ["the", "se"], ["s", "ha"], ["p", "ut"], ["he", "at"], ["i", "ght"], ["A", "nd"], ["sub", "stan"], ["p", "lat"], ["in", "t"], ["h", "as"], ["ta", "in"], ["p", "h"], ["Y", "ou"], ["wa", "y"], ["up", "on"], ["al", "th"], ["w", "as"], ["ex", "per"], ["p", "la"], ["combust", "ion"], ["damage", "."], ["se", "l"], ["an", "t"], ["I", "t"], ["ge", "t"], ["ro", "gen"], ["h", "ib"], ["ac", "id"], ["pi", "e"], ["exper", "im"], ["experim", "ent"], ["T", "here"], ["pro", "m"], ["the", "y"], ["en", "d"], ["act", "ion"], ["ou", "s"], ["W", "h"], ["buildup", "."], ["prom", "ot"], ["vi", "a"], ["in", "hib"], ["h", "ow"], ["i", "ll"], ["ma", "y"], ["r", "a"], ["li", "ght"], ["w", "o"], ["he", "alth"], ["the", "m"], ["o", "d"], ["p", "e"], ["ly", ","], ["u", "re"], ["plat", "in"], ["health", "."], ["it", "ion"], ["substan", "ce"], ["platin", "um"], ["pie", "ce"], ["ma", "ke"], ["ase", "."], ["Th", "is"], ["l", "ow"], ["as", "s"], ["the", "n"], ["he", "art"], ["d", "ise"], ["po", "se"], ["dise", "ase."], ["ca", "use"], ["y", "d"], ["re", "su"], ["sa", "me"], ["i", "ve"], ["n", "o"], ["sha", "ll"], ["so", "l"], ["yd", "rogen"], ["resu", "lt"], ["c", "ed"], ["ab", "out"], ["n", "t"]], "vocab": {" ": 0, "!": 1, "&": 2, "(": 3, ")": 4, ",": 5, "-": 6, ".": 7, "0": 8, "1": 9, "2": 10, "3": 11, "4": 12, "5": 13, "6": 14, "7": 15, "8": 16, "9": 17, ":": 18, ";": 19, "?": 20, "A": 21, "B": 22, "C": 23, "D": 24, "E": 25, "F": 26, "G": 27, "H": 28, "I": 29, "J": 30, "K": 31, "L": 32, "M": 33, "N": 34, "O": 35, "P": 36, "R": 37, "S": 38, "T": 39, "U": 40, "V": 41, "W": 42, "X": 43, "Y": 44, "_": 45, "a": 46, "b": 47, "c": 48, "d": 49, "e": 50, "f": 51, "g": 52, "h": 53, "i": 54, "j": 55, "k": 56, "l": 57, "m": 58, "n": 59, "o": 60, "p": 61, "q": 62, "r": 63, "s": 64, "t": 65, "u": 66, "v": 67, "w": 68, "x": 69, "y": 70, "z": 71, "|": 72, "\u00b0": 73, "\u00b9": 74, "\u00bc": 75, "\u00bd": 76, "\u00be": 77, "\u00e6": 78, "\u00e8": 79, "\u2019": 80, "\u201c": 81, "\u201d": 82, "\u201e": 83, "\u2044": 84, "\u2074": 85, "\u2077": 86, "\u2079": 87, "\u2080": 88, "\u2081": 89, "\u2082": 90, "\u2086": 91, "\u2152": 92, "\u2153": 93, "\u2155": 94, "\u2159": 95, "\u215c": 96, "th": 97, "the": 98, "in": 99, "re": 100, "an": 101, "at": 102, "es": 103, "is": 104, "er": 105, "on": 106, "ou": 107, "it": 108, "and": 109, "of": 110, "en": 111, "to": 112, "ar": 113, "as": 114, "ing": 115, "ll": 116, "he": 117, "se": 118, "le": 119, "ic": 120, "wh": 121, "me": 122, "bu": 123, "st": 124, "ro": 125, "or": 126, "ess": 127, "ly": 128, "ow": 129, "wi": 130, "that": 131, "ct": 132, "you": 133, "ha": 134, "ed": 135, "be": 136, "ve": 137, "ot": 138, "we": 139, "ma": 140, "ce": 141, "ion": 142, "so": 143, "al": 144, "co": 145, "ir": 146, "ich": 147, "ex": 148, "ge": 149, "up": 150, "ent": 151, "which": 152, "this": 153, "us": 154, "ca": 155, "ld": 156, "su": 157, "ta": 158, "pro": 159, "gh": 160, "have": 161, "di": 162, "un": 163, "will": 164, "rea": 165, "ther": 166, "here": 167, "ver": 168, "la": 169, "mo": 170, "id": 171, "ke": 172, "ness": 173, "rn": 174, "brea": 175, "less": 176, "breath": 177, "by": 178, "lessness": 179, "not": 180, "breathlessness": 181, "for": 182, "ater": 183, "per": 184, "ctly": 185, "ut": 186, "with": 187, "li": 188, "see": 189, "com": 190, "ise": 191, "water": 192, "uses": 193, "cand": 194, "ch": 195, "causes": 196, "ad": 197, "air": 198, "con": 199, "gen": 200, "burn": 201, "um": 202, "art": 203, "im": 204, "can": 205, "du": 206, "out": 207, "other": 208, "now": 209, "king": 210, "if": 211, "ght": 212, "candle": 213, "da": 214, "are": 215, "ung": 216, "po": 217, "dire": 218, "our": 219, "ild": 220, "directly": 221, "build": 222, "indirectly": 223, "buildup": 224, "dama": 225, "rom": 226, "damage": 227, "from": 228, "ur": 229, "lung": 230, "into": 231, "am": 232, "ap": 233, "car": 234, "nd": 235, "all": 236, "what": 237, "sa": 238, "s,": 239, "lead": 240, "fo": 241, "qu": 242, "but": 243, "one": 244, "its": 245, "lo": 246, "ib": 247, "tar": 248, "de": 249, "act": 250, "ust": 251, "ces": 252, "fla": 253, "breathlessness.": 254, "pre": 255, "erc": 256, "sp": 257, "ab": 258, "wa": 259, "go": 260, "thing": 261, "flame": 262, "bon": 263, "carbon": 264, "ercise": 265, "very": 266, "exercise": 267, "there": 268, "et": 269, "pi": 270, "do": 271, "stan": 272, "lat": 273, "ere": 274, "ac": 275, "tu": 276, "ter": 277, "use": 278, "ox": 279, "part": 280, "ind": 281, "ves": 282, "tle": 283, "produ": 284, "leads": 285, "y,": 286, "fore": 287, "Smo": 288, "Smoking": 289, "il": 290, "gas": 291, "sub": 292, "fu": 293, "Th": 294, "vi": 295, "ation": 296, "ect": 297, "when": 298, "The": 299, "combu": 300, "combust": 301, "lt": 302, "der": 303, "ough": 304, "ygen": 305, "les": 306, "ff": 307, "take": 308, "ase": 309, "she": 310, "lit": 311, "oxygen": 312, "some": 313, "ould": 314, "little": 315, "shew": 316, "these": 317, "sha": 318, "put": 319, "heat": 320, "ight": 321, "And": 322, "substan": 323, "plat": 324, "int": 325, "has": 326, "tain": 327, "ph": 328, "You": 329, "way": 330, "upon": 331, "alth": 332, "was": 333, "exper": 334, "pla": 335, "combustion": 336, "damage.": 337, "sel": 338, "ant": 339, "It": 340, "get": 341, "rogen": 342, "hib": 343, "acid": 344, "pie": 345, "experim": 346, "experiment": 347, "There": 348, "prom": 349, "they": 350, "end": 351, "action": 352, "ous": 353, "Wh": 354, "buildup.": 355, "promot": 356, "via": 357, "inhib": 358, "how": 359, "ill": 360, "may": 361, "ra": 362, "light": 363, "wo": 364, "health": 365, "them": 366, "od": 367, "pe": 368, "ly,": 369, "ure": 370, "platin": 371, "health.": 372, "ition": 373, "substance": 374, "platinum": 375, "piece": 376, "make": 377, "ase.": 378, "This": 379, "low": 380, "ass": 381, "then": 382, "heart": 383, "dise": 384, "pose": 385, "disease.": 386, "cause": 387, "yd": 388, "resu": 389, "same": 390, "ive": 391, "no": 392, "shall": 393, "sol": 394, "ydrogen": 395, "result": 396, "ced": 397, "about": 398, "nt": 399}, "itos": {"0": " ", "1": "!", "2": "&", "3": "(", "4": ")", "5": ",", "6": "-", "7": ".", "8": "0", "9": "1", "10": "2", "11": "3", "12": "4", "13": "5", "14": "6", "15": "7", "16": "8", "17": "9", "18": ":", "19": ";", "20": "?", "21": "A", "22": "B", "23": "C", "24": "D", "25": "E", "26": "F", "27": "G", "28": "H", "29": "I", "30": "J", "31": "K", "32": "L", "33": "M", "34": "N", "35": "O", "36": "P", "37": "R", "38": "S", "39": "T", "40": "U", "41": "V", "42": "W", "43": "X", "44": "Y", "45": "_", "46": "a", "47": "b", "48": "c", "49": "d", "50": "e", "51": "f", "52": "g", "53": "h", "54": "i", "55": "j", "56": "k", "57": "l", "58": "m", "59": "n", "60": "o", "61": "p", "62": "q", "63": "r", "64": "s", "65": "t", "66": "u", "67": "v", "68": "w", "69": "x", "70": "y", "71": "z", "72": "|", "73": "\u00b0", "74": "\u00b9", "75": "\u00bc", "76": "\u00bd", "77": "\u00be", "78": "\u00e6", "79": "\u00e8", "80": "\u2019", "81": "\u201c", "82": "\u201d", "83": "\u201e", "84": "\u2044", "85": "\u2074", "86": "\u2077", "87": "\u2079", "88": "\u2080", "89": "\u2081", "90": "\u2082", "91": "\u2086", "92": "\u2152", "93": "\u2153", "94": "\u2155", "95": "\u2159", "96": "\u215c", "97": "th", "98": "the", "99": "in", "100": "re", "101": "an", "102": "at", "103": "es", "104": "is", "105": "er", "106": "on", "107": "ou", "108": "it", "109": "and", "110": "of", "111": "en", "112": "to", "113": "ar", "114": "as", "115": "ing", "116": "ll", "117": "he", "118": "se", "119": "le", "120": "ic", "121": "wh", "122": "me", "123": "bu", "124": "st", "125": "ro", "126": "or", "127": "ess", "128": "ly", "129": "ow", "130": "wi", "131": "that", "132": "ct", "133": "you", "134": "ha", "135": "ed", "136": "be", "137": "ve", "138": "ot", "139": "we", "140": "ma", "141": "ce", "142": "ion", "143": "so", "144": "al", "145": "co", "146": "ir", "147": "ich", "148": "ex", "149": "ge", "150": "up", "151": "ent", "152": "which", "153": "this", "154": "us", "155": "ca", "156": "ld", "157": "su", "158": "ta", "159": "pro", "160": "gh", "161": "have", "162": "di", "163": "un", "164": "will", "165": "rea", "166": "ther", "167": "here", "168": "ver", "169": "la", "170": "mo", "171": "id", "172": "ke", "173": "ness", "174": "rn", "175": "brea", "176": "less", "177": "breath", "178": "by", "179": "lessness", "180": "not", "181": "breathlessness", "182": "for", "183": "ater", "184": "per", "185": "ctly", "186": "ut", "187": "with", "188": "li", "189": "see", "190": "com", "191": "ise", "192": "water", "193": "uses", "194": "cand", "195": "ch", "196": "causes", "197": "ad", "198": "air", "199": "con", "200": "gen", "201": "burn", "202": "um", "203": "art", "204": "im", "205": "can", "206": "du", "207": "out", "208": "other", "209": "now", "210": "king", "211": "if", "212": "ght", "213": "candle", "214": "da", "215": "are", "216": "ung", "217": "po", "218": "dire", "219": "our", "220": "ild", "221": "directly", "222": "build", "223": "indirectly", "224": "buildup", "225": "dama", "226": "rom", "227": "damage", "228": "from", "229": "ur", "230": "lung", "231": "into", "232": "am", "233": "ap", "234": "car", "235": "nd", "236": "all", "237": "what", "238": "sa", "239": "s,", "240": "lead", "241": "fo", "242": "qu", "243": "but", "244": "one", "245": "its", "246": "lo", "247": "ib", "248": "tar", "249": "de", "250": "act", "251": "ust", "252": "ces", "253": "fla", "254": "breathlessness.", "255": "pre", "256": "erc", "257": "sp", "258": "ab", "259": "wa", "260": "go", "261": "thing", "262": "flame", "263": "bon", "264": "carbon", "265": "ercise", "266": "very", "267": "exercise", "268": "there", "269": "et", "270": "pi", "271": "do", "272": "stan", "273": "lat", "274": "ere", "275": "ac", "276": "tu", "277": "ter", "278": "use", "279": "ox", "280": "part", "281": "ind", "282": "ves", "283": "tle", "284": "produ", "285": "leads", "286": "y,", "287": "fore", "288": "Smo", "289": "Smoking", "290": "il", "291": "gas", "292": "sub", "293": "fu", "294": "Th", "295": "vi", "296": "ation", "297": "ect", "298": "when", "299": "The", "300": "combu", "301": "combust", "302": "lt", "303": "der", "304": "ough", "305": "ygen", "306": "les", "307": "ff", "308": "take", "309": "ase", "310": "she", "311": "lit", "312": "oxygen", "313": "some", "314": "ould", "315": "little", "316": "shew", "317": "these", "318": "sha", "319": "put", "320": "heat", "321": "ight", "322": "And", "323": "substan", "324": "plat", "325": "int", "326": "has", "327": "tain", "328": "ph", "329": "You", "330": "way", "331": "upon", "332": "alth", "333": "was", "334": "exper", "335": "pla", "336": "combustion", "337": "damage.", "338": "sel", "339": "ant", "340": "It", "341": "get", "342": "rogen", "343": "hib", "344": "acid", "345": "pie", "346": "experim", "347": "experiment", "348": "There", "349": "prom", "350": "they", "351": "end", "352": "action", "353": "ous", "354": "Wh", "355": "buildup.", "356": "promot", "357": "via", "358": "inhib", "359": "how", "360": "ill", "361": "may", "362": "ra", "363": "light", "364": "wo", "365": "health", "366": "them", "367": "od", "368": "pe", "369": "ly,", "370": "ure", "371": "platin", "372": "health.", "373": "ition", "374": "substance", "375": "platinum", "376": "piece", "377": "make", "378": "ase.", "379": "This", "380": "low", "381": "ass", "382": "then", "383": "heart", "384": "dise", "385": "pose", "386": "disease.", "387": "cause", "388": "yd", "389": "resu", "390": "same", "391": "ive", "392": "no", "393": "shall", "394": "sol", "395": "ydrogen", "396": "result", "397": "ced", "398": "about", "399": "nt"}}