{"merges": [["e", "s"], ["t", "h"], ["r", "e"], ["i", "n"], ["es", "s"], ["th", "e"], ["s", "e"], ["\n", "\n"], ["l", "y"], ["e", "r"], ["h", "e"], ["t", "ly"], ["o", "n"], ["c", "a"], ["a", "r"], ["re", "a"], ["d", "i"], ["n", "ess"], ["rea", "th"], ["l", "ess"], ["e", "n"], ["reath", "less"], ["reathless", "ness"], ["t", "o"], ["u", "s"], ["l", "e"], ["b", "reathlessness"], ["m", "a"], ["n", "d"], ["d", "u"], ["c", "tly"], ["ca", "us"], ["caus", "es"], ["in", "g"], ["i", "l"], ["g", "e"], ["d", "a"], ["i", "t"], ["r", "o"], ["a", "l"], ["e", "x"], ["di", "re"], ["u", "n"], ["in", "dire"], ["indire", "ctly"], ["a", "t"], ["m", "o"], ["da", "ma"], ["b", "u"], ["un", "g"], ["dama", "ge"], ["i", "s"], ["T", "he"], ["bu", "il"], ["buil", "du"], ["buildu", "p"], ["c", "i"], ["p", "ro"], ["q", "u"], ["en", "tly"], ["er", "ci"], ["erci", "se"], ["on", "se"], ["l", "ung"], ["onse", "qu"], ["onsequ", "ently"], ["C", "onsequently"], ["Consequently", ","], ["a", "d"], ["a", "nd"], ["ex", "ercise"], ["breathlessness", "."], ["o", "f"], ["le", "ad"], ["lead", "s"], ["k", "ing"], ["h", "i"], ["al", "th"], ["he", "alth"], ["o", "u"], ["i", "on"], ["health", "."], ["w", "e"], ["s", "o"], ["t", "ar"], ["e", "d"], ["i", "a"], ["b", "it"], ["in", "hi"], ["inhi", "bit"], ["ar", "t"], ["a", "s"], ["pro", "mo"], ["promo", "t"], ["v", "ia"], ["en", "t"], ["du", "c"], ["o", "r"], ["a", "se"], ["ca", "n"], ["di", "se"], ["dise", "ase"], ["he", "art"], ["disease", "."], ["S", "mo"], ["Smo", "king"], ["damage", "."], ["m", "e"], ["s", "t"], ["re", "duc"], ["v", "er"], ["l", "o"], ["reduc", "es"], ["exercise", "."], ["T", "ar"], ["e", "t"], ["i", "m"], ["a", "n"], [" ", " "], ["the", "r"], ["c", "h"], ["w", "h"], ["A", "nd"], ["v", "es"], ["im", "pro"], ["c", "e"], ["i", "g"], ["impro", "ves"], ["v", "e"], ["o", "we"], ["b", "lo"], ["wh", "at"], ["c", "t"], ["ver", ","], ["c", "er"], ["o", "ther"], ["owe", "ver,"], ["l", "a"], ["ent", "s"], ["c", "king"], ["H", "owever,"], ["buildup", "."], ["inhibit", "s"], ["blo", "cking"], ["promot", "er"], ["y", "ou"], ["p", "re"], ["d", "e"], ["ex", "a"], ["th", "at"], ["b", "e"], ["pre", "v"], ["prev", "ents"], ["can", "cer"], ["cancer", "."], ["h", "and"], ["exa", "ctly"], ["n", "o"], ["c", "o"], ["O", "n"], ["hand", ","], ["Y", "et"], ["promot", "es"], ["inhibit", "ion"], ["u", "l"], ["t", "r"], ["h", "a"], ["c", "on"], ["s", "."], ["i", "r"], ["ca", "nd"], ["ig", "h"], ["p", "h"], ["e", "p"], ["  ", "  "], ["ha", "ve"], ["a", "p"], ["le", "ep"], ["f", "e"], ["s", "u"], ["L", "ung"], ["B", "reathlessness"], ["w", "hi"], ["s", "leep"], ["w", "i"], ["whi", "ch"], ["k", "e"], ["r", "a"], ["l", "at"], ["f", "or"], ["il", "l"], ["cand", "le"], ["s", "y"], ["ou", "t"], ["o", "us"], ["o", "w"], ["r", "es"], ["t", "ion"], ["f", "la"], ["f", "fe"], ["l", "i"], ["no", "t"], ["s", "i"], ["k", "g"], ["a", "ct"], ["st", "r"], ["u", "p"], ["u", "r"], ["m", "p"], ["a", "ir"], ["t", "er"], ["we", "igh"], ["a", "re"], ["fla", "me"], ["re", "lat"], ["relat", "ed"], ["p", "er"], ["b", "y"], ["l", "u"], ["i", "f"], ["on", "e"], ["a", "b"], ["in", "c"], ["at", "ion"], ["to", "r"], ["th", "is"], ["d", "o"], ["a", "m"], ["u", "t"], ["st", "e"], ["in", "e"], ["he", "re"], ["g", "es"], ["l", "l"], ["l", "d"], ["t", "s"], ["m", "."], ["es", "."], ["co", "m"], ["r", "i"], ["n", "er"], ["g", "h"], ["s", "h"], ["str", "ess"], ["i", "d"], ["w", "a"], ["t", "a"], ["ou", "r"], ["se", "e"], ["w", "ill"], ["c", "k"], ["al", "l"], ["kg", "."], ["sy", "ste"], ["f", "in"], ["g", "o"], ["t", "e"], ["inc", "rea"], ["ca", "l"], ["re", "f"], ["v", "it"], ["E", "x"], ["Ex", "ercise"], ["dama", "ges"], ["    ", "    "], ["wi", "th"], ["t", "i"], ["re", "d"], ["t", ","], ["p", "e"], ["p", "o"], ["ner", "v"], ["l", "as"], ["o", "d"], ["p", "art"], ["no", "w"], ["p", "l"], ["w", "as"], ["e", "ffe"], ["effe", "ct"], ["h", "as"], ["h", "o"], ["n", "t"], ["s", "es"], ["u", "se"], ["bu", "r"], ["ro", "u"], ["p", "la"], ["ar", "i"], ["r", "is"], ["ma", "n"], ["ro", "m"], ["igh", "t"], ["to", "m"], ["f", "rom"], ["s", "a"], ["bur", "n"], ["th", "ing"], ["increa", "ses"], ["vit", "am"], ["vitam", "in"], ["an", "t"], ["u", "m"], ["nerv", "ous"], ["syste", "m"], ["e", "l"], ["wa", "y"], ["ver", "y"], ["l", "es"], ["it", "t"], ["res", "ul"], ["it", "y"], ["i", "ma"], ["e", "le"], ["on", "g"], ["bu", "t"], ["in", "to"], ["air", "pl"], ["airpl", "an"], ["airplan", "e"], ["i", "c"]], "vocab": {"\n": 0, " ": 1, "!": 2, "&": 3, "(": 4, ")": 5, ",": 6, "-": 7, ".": 8, "0": 9, "1": 10, "2": 11, "3": 12, "4": 13, "5": 14, "6": 15, "7": 16, "8": 17, "9": 18, ":": 19, ";": 20, "?": 21, "A": 22, "B": 23, "C": 24, "D": 25, "E": 26, "F": 27, "G": 28, "H": 29, "I": 30, "J": 31, "K": 32, "L": 33, "M": 34, "N": 35, "O": 36, "P": 37, "R": 38, "S": 39, "T": 40, "U": 41, "V": 42, "W": 43, "X": 44, "Y": 45, "[": 46, "]": 47, "_": 48, "a": 49, "b": 50, "c": 51, "d": 52, "e": 53, "f": 54, "g": 55, "h": 56, "i": 57, "j": 58, "k": 59, "l": 60, "m": 61, "n": 62, "o": 63, "p": 64, "q": 65, "r": 66, "s": 67, "t": 68, "u": 69, "v": 70, "w": 71, "x": 72, "y": 73, "z": 74, "\u2014": 75, "\u2019": 76, "\u201c": 77, "\u201d": 78, "es": 79, "th": 80, "re": 81, "in": 82, "ess": 83, "the": 84, "se": 85, "\n\n": 86, "ly": 87, "er": 88, "he": 89, "tly": 90, "on": 91, "ca": 92, "ar": 93, "rea": 94, "di": 95, "ness": 96, "reath": 97, "less": 98, "en": 99, "reathless": 100, "reathlessness": 101, "to": 102, "us": 103, "le": 104, "breathlessness": 105, "ma": 106, "nd": 107, "du": 108, "ctly": 109, "caus": 110, "causes": 111, "ing": 112, "il": 113, "ge": 114, "da": 115, "it": 116, "ro": 117, "al": 118, "ex": 119, "dire": 120, "un": 121, "indire": 122, "indirectly": 123, "at": 124, "mo": 125, "dama": 126, "bu": 127, "ung": 128, "damage": 129, "is": 130, "The": 131, "buil": 132, "buildu": 133, "buildup": 134, "ci": 135, "pro": 136, "qu": 137, "ently": 138, "erci": 139, "ercise": 140, "onse": 141, "lung": 142, "onsequ": 143, "onsequently": 144, "Consequently": 145, "Consequently,": 146, "ad": 147, "and": 148, "exercise": 149, "breathlessness.": 150, "of": 151, "lead": 152, "leads": 153, "king": 154, "hi": 155, "alth": 156, "health": 157, "ou": 158, "ion": 159, "health.": 160, "we": 161, "so": 162, "tar": 163, "ed": 164, "ia": 165, "bit": 166, "inhi": 167, "inhibit": 168, "art": 169, "as": 170, "promo": 171, "promot": 172, "via": 173, "ent": 174, "duc": 175, "or": 176, "ase": 177, "can": 178, "dise": 179, "disease": 180, "heart": 181, "disease.": 182, "Smo": 183, "Smoking": 184, "damage.": 185, "me": 186, "st": 187, "reduc": 188, "ver": 189, "lo": 190, "reduces": 191, "exercise.": 192, "Tar": 193, "et": 194, "im": 195, "an": 196, "  ": 197, "ther": 198, "ch": 199, "wh": 200, "And": 201, "ves": 202, "impro": 203, "ce": 204, "ig": 205, "improves": 206, "ve": 207, "owe": 208, "blo": 209, "what": 210, "ct": 211, "ver,": 212, "cer": 213, "other": 214, "owever,": 215, "la": 216, "ents": 217, "cking": 218, "However,": 219, "buildup.": 220, "inhibits": 221, "blocking": 222, "promoter": 223, "you": 224, "pre": 225, "de": 226, "exa": 227, "that": 228, "be": 229, "prev": 230, "prevents": 231, "cancer": 232, "cancer.": 233, "hand": 234, "exactly": 235, "no": 236, "co": 237, "On": 238, "hand,": 239, "Yet": 240, "promotes": 241, "inhibition": 242, "ul": 243, "tr": 244, "ha": 245, "con": 246, "s.": 247, "ir": 248, "cand": 249, "igh": 250, "ph": 251, "ep": 252, "    ": 253, "have": 254, "ap": 255, "leep": 256, "fe": 257, "su": 258, "Lung": 259, "Breathlessness": 260, "whi": 261, "sleep": 262, "wi": 263, "which": 264, "ke": 265, "ra": 266, "lat": 267, "for": 268, "ill": 269, "candle": 270, "sy": 271, "out": 272, "ous": 273, "ow": 274, "res": 275, "tion": 276, "fla": 277, "ffe": 278, "li": 279, "not": 280, "si": 281, "kg": 282, "act": 283, "str": 284, "up": 285, "ur": 286, "mp": 287, "air": 288, "ter": 289, "weigh": 290, "are": 291, "flame": 292, "relat": 293, "related": 294, "per": 295, "by": 296, "lu": 297, "if": 298, "one": 299, "ab": 300, "inc": 301, "ation": 302, "tor": 303, "this": 304, "do": 305, "am": 306, "ut": 307, "ste": 308, "ine": 309, "here": 310, "ges": 311, "ll": 312, "ld": 313, "ts": 314, "m.": 315, "es.": 316, "com": 317, "ri": 318, "ner": 319, "gh": 320, "sh": 321, "stress": 322, "id": 323, "wa": 324, "ta": 325, "our": 326, "see": 327, "will": 328, "ck": 329, "all": 330, "kg.": 331, "syste": 332, "fin": 333, "go": 334, "te": 335, "increa": 336, "cal": 337, "ref": 338, "vit": 339, "Ex": 340, "Exercise": 341, "damages": 342, "        ": 343, "with": 344, "ti": 345, "red": 346, "t,": 347, "pe": 348, "po": 349, "nerv": 350, "las": 351, "od": 352, "part": 353, "now": 354, "pl": 355, "was": 356, "effe": 357, "effect": 358, "has": 359, "ho": 360, "nt": 361, "ses": 362, "use": 363, "bur": 364, "rou": 365, "pla": 366, "ari": 367, "ris": 368, "man": 369, "rom": 370, "ight": 371, "tom": 372, "from": 373, "sa": 374, "burn": 375, "thing": 376, "increases": 377, "vitam": 378, "vitamin": 379, "ant": 380, "um": 381, "nervous": 382, "system": 383, "el": 384, "way": 385, "very": 386, "les": 387, "itt": 388, "resul": 389, "ity": 390, "ima": 391, "ele": 392, "ong": 393, "but": 394, "into": 395, "airpl": 396, "airplan": 397, "airplane": 398, "ic": 399}, "itos": {"0": "\n", "1": " ", "2": "!", "3": "&", "4": "(", "5": ")", "6": ",", "7": "-", "8": ".", "9": "0", "10": "1", "11": "2", "12": "3", "13": "4", "14": "5", "15": "6", "16": "7", "17": "8", "18": "9", "19": ":", "20": ";", "21": "?", "22": "A", "23": "B", "24": "C", "25": "D", "26": "E", "27": "F", "28": "G", "29": "H", "30": "I", "31": "J", "32": "K", "33": "L", "34": "M", "35": "N", "36": "O", "37": "P", "38": "R", "39": "S", "40": "T", "41": "U", "42": "V", "43": "W", "44": "X", "45": "Y", "46": "[", "47": "]", "48": "_", "49": "a", "50": "b", "51": "c", "52": "d", "53": "e", "54": "f", "55": "g", "56": "h", "57": "i", "58": "j", "59": "k", "60": "l", "61": "m", "62": "n", "63": "o", "64": "p", "65": "q", "66": "r", "67": "s", "68": "t", "69": "u", "70": "v", "71": "w", "72": "x", "73": "y", "74": "z", "75": "\u2014", "76": "\u2019", "77": "\u201c", "78": "\u201d", "79": "es", "80": "th", "81": "re", "82": "in", "83": "ess", "84": "the", "85": "se", "86": "\n\n", "87": "ly", "88": "er", "89": "he", "90": "tly", "91": "on", "92": "ca", "93": "ar", "94": "rea", "95": "di", "96": "ness", "97": "reath", "98": "less", "99": "en", "100": "reathless", "101": "reathlessness", "102": "to", "103": "us", "104": "le", "105": "breathlessness", "106": "ma", "107": "nd", "108": "du", "109": "ctly", "110": "caus", "111": "causes", "112": "ing", "113": "il", "114": "ge", "115": "da", "116": "it", "117": "ro", "118": "al", "119": "ex", "120": "dire", "121": "un", "122": "indire", "123": "indirectly", "124": "at", "125": "mo", "126": "dama", "127": "bu", "128": "ung", "129": "damage", "130": "is", "131": "The", "132": "buil", "133": "buildu", "134": "buildup", "135": "ci", "136": "pro", "137": "qu", "138": "ently", "139": "erci", "140": "ercise", "141": "onse", "142": "lung", "143": "onsequ", "144": "onsequently", "145": "Consequently", "146": "Consequently,", "147": "ad", "148": "and", "149": "exercise", "150": "breathlessness.", "151": "of", "152": "lead", "153": "leads", "154": "king", "155": "hi", "156": "alth", "157": "health", "158": "ou", "159": "ion", "160": "health.", "161": "we", "162": "so", "163": "tar", "164": "ed", "165": "ia", "166": "bit", "167": "inhi", "168": "inhibit", "169": "art", "170": "as", "171": "promo", "172": "promot", "173": "via", "174": "ent", "175": "duc", "176": "or", "177": "ase", "178": "can", "179": "dise", "180": "disease", "181": "heart", "182": "disease.", "183": "Smo", "184": "Smoking", "185": "damage.", "186": "me", "187": "st", "188": "reduc", "189": "ver", "190": "lo", "191": "reduces", "192": "exercise.", "193": "Tar", "194": "et", "195": "im", "196": "an", "197": "  ", "198": "ther", "199": "ch", "200": "wh", "201": "And", "202": "ves", "203": "impro", "204": "ce", "205": "ig", "206": "improves", "207": "ve", "208": "owe", "209": "blo", "210": "what", "211": "ct", "212": "ver,", "213": "cer", "214": "other", "215": "owever,", "216": "la", "217": "ents", "218": "cking", "219": "However,", "220": "buildup.", "221": "inhibits", "222": "blocking", "223": "promoter", "224": "you", "225": "pre", "226": "de", "227": "exa", "228": "that", "229": "be", "230": "prev", "231": "prevents", "232": "cancer", "233": "cancer.", "234": "hand", "235": "exactly", "236": "no", "237": "co", "238": "On", "239": "hand,", "240": "Yet", "241": "promotes", "242": "inhibition", "243": "ul", "244": "tr", "245": "ha", "246": "con", "247": "s.", "248": "ir", "249": "cand", "250": "igh", "251": "ph", "252": "ep", "253": "    ", "254": "have", "255": "ap", "256": "leep", "257": "fe", "258": "su", "259": "Lung", "260": "Breathlessness", "261": "whi", "262": "sleep", "263": "wi", "264": "which", "265": "ke", "266": "ra", "267": "lat", "268": "for", "269": "ill", "270": "candle", "271": "sy", "272": "out", "273": "ous", "274": "ow", "275": "res", "276": "tion", "277": "fla", "278": "ffe", "279": "li", "280": "not", "281": "si", "282": "kg", "283": "act", "284": "str", "285": "up", "286": "ur", "287": "mp", "288": "air", "289": "ter", "290": "weigh", "291": "are", "292": "flame", "293": "relat", "294": "related", "295": "per", "296": "by", "297": "lu", "298": "if", "299": "one", "300": "ab", "301": "inc", "302": "ation", "303": "tor", "304": "this", "305": "do", "306": "am", "307": "ut", "308": "ste", "309": "ine", "310": "here", "311": "ges", "312": "ll", "313": "ld", "314": "ts", "315": "m.", "316": "es.", "317": "com", "318": "ri", "319": "ner", "320": "gh", "321": "sh", "322": "stress", "323": "id", "324": "wa", "325": "ta", "326": "our", "327": "see", "328": "will", "329": "ck", "330": "all", "331": "kg.", "332": "syste", "333": "fin", "334": "go", "335": "te", "336": "increa", "337": "cal", "338": "ref", "339": "vit", "340": "Ex", "341": "Exercise", "342": "damages", "343": "        ", "344": "with", "345": "ti", "346": "red", "347": "t,", "348": "pe", "349": "po", "350": "nerv", "351": "las", "352": "od", "353": "part", "354": "now", "355": "pl", "356": "was", "357": "effe", "358": "effect", "359": "has", "360": "ho", "361": "nt", "362": "ses", "363": "use", "364": "bur", "365": "rou", "366": "pla", "367": "ari", "368": "ris", "369": "man", "370": "rom", "371": "ight", "372": "tom", "373": "from", "374": "sa", "375": "burn", "376": "thing", "377": "increases", "378": "vitam", "379": "vitamin", "380": "ant", "381": "um", "382": "nervous", "383": "system", "384": "el", "385": "way", "386": "very", "387": "les", "388": "itt", "389": "resul", "390": "ity", "391": "ima", "392": "ele", "393": "ong", "394": "but", "395": "into", "396": "airpl", "397": "airplan", "398": "airplane", "399": "ic"}}