{"merges": [["h", "e"], ["t", "he"], ["i", "n"], ["e", "s"], ["r", "e"], ["a", "t"], ["a", "n"], ["\n", "\n"], ["o", "n"], ["e", "r"], ["s", "e"], ["T", "he"], ["t", "o"], ["i", "t"], ["l", "e"], ["l", "y"], ["e", "n"], ["u", "s"], ["i", "s"], ["a", "r"], ["a", "l"], ["an", "d"], ["t", "h"], ["es", "s"], ["o", "f"], ["a", "s"], ["in", "g"], ["o", "u"], ["c", "t"], ["e", "d"], ["o", "r"], ["a", "m"], ["en", "t"], ["c", "a"], ["i", "c"], ["r", "o"], ["i", "on"], ["d", "i"], ["ca", "us"], ["caus", "es"], ["i", "l"], ["w", "e"], ["d", "u"], ["s", "t"], ["re", "at"], ["i", "g"], ["n", "ess"], ["b", "u"], ["reat", "h"], ["a", "g"], ["ct", "ly"], ["p", "ro"], ["e", "x"], ["u", "n"], ["l", "ess"], ["reath", "less"], ["reathless", "ness"], ["c", "e"], ["w", "h"], ["m", "o"], ["q", "u"], ["b", "reathlessness"], ["s", "o"], ["a", "d"], ["di", "re"], ["i", "m"], ["b", "e"], ["in", "dire"], ["indire", "ctly"], ["th", "at"], ["ag", "e"], ["ly", ","], ["c", "o"], ["v", "e"], ["o", "w"], ["y", "ou"], ["on", "se"], ["qu", "ent"], ["c", "an"], ["ig", "h"], ["onse", "quent"], ["C", "onsequent"], ["Consequent", "ly,"], ["c", "on"], ["s", "."], ["d", "e"], ["e", "t"], ["p", "h"], ["l", "at"], ["c", "i"], [" ", " "], ["c", "h"], ["d", "am"], ["r", "a"], ["un", "g"], ["dam", "age"], ["v", "er"], ["i", "r"], ["ar", "t"], ["bu", "il"], ["buil", "du"], ["buildu", "p"], ["p", "l"], ["s", "u"], ["al", "th"], ["h", "a"], ["se", "."], ["ic", "h"], ["er", "ci"], ["l", "ung"], ["he", "alth"], ["le", "ad"], ["lead", "s"], ["m", "e"], ["o", "us"], ["f", "l"], ["s", "y"], ["o", "t"], ["k", "e"], ["am", "e"], ["t", "er"], ["c", "and"], ["wh", "ich"], ["i", "b"], ["ex", "erci"], ["il", "l"], ["k", "ing"], ["k", "g"], ["u", "l"], ["al", "l"], ["a", "y"], ["we", "igh"], ["the", "r"], ["re", "lat"], ["breathlessness", "."], ["relat", "ed"], ["co", "m"], ["f", "e"], ["an", "t"], ["du", "c"], ["p", "er"], ["in", "c"], ["i", "d"], ["ha", "ve"], ["at", "ion"], ["n", "d"], ["e", "p"], ["f", "or"], ["us", "t"], ["u", "r"], ["a", "ir"], ["cand", "le"], ["health", "."], ["i", "f"], ["fl", "ame"], ["v", "es"], ["a", "re"], ["f", "fe"], ["ou", "t"], ["th", "is"], ["i", "a"], ["le", "ep"], ["a", "b"], ["u", "t"], ["st", "e"], ["o", "l"], ["b", "l"], ["r", "es"], ["u", "m"], ["b", "y"], ["n", "ot"], ["t", "ar"], ["h", "ib"], ["hib", "it"], ["on", "e"], ["n", "er"], ["w", "ill"], ["in", "hibit"], ["re", "duc"], ["m", "."], ["u", "p"], ["a", "p"], ["r", "i"], ["wh", "at"], ["  ", "  "], ["d", "o"], ["es", "."], ["pro", "mo"], ["v", "ia"], ["s", "leep"], ["c", "er"], ["sy", "ste"], ["kg", "."], ["o", "ther"], ["t", "a"], ["bu", "r"], ["bur", "n"], ["inc", "re"], ["se", "a"], ["v", "it"], ["di", "sea"], ["im", "pro"], ["A", "nd"], ["it", "h"], ["p", "o"], ["w", "ith"], ["w", "as"], ["se", "d"], ["f", "in"], ["re", "f"], ["se", "e"], ["he", "art"], ["v", "ent"], ["e", "le"], ["disea", "se."], ["damage", "."], ["reduc", "es"], ["impro", "ves"], ["S", "mo"], ["Smo", "king"], ["ner", "v"], ["syste", "m"], ["igh", "t"], ["o", "o"], ["at", "e"], ["at", "er"], ["he", "re"], ["e", "ffe"], ["effe", "ct"], ["t", "s"], ["a", "ct"], ["l", "l"], ["s", "h"], ["am", "in"], ["re", "d"], ["p", "art"], ["T", "ar"], ["exerci", "se."], ["exerci", "se"], ["p", "re"], ["g", "h"], ["as", "t"], ["ou", "gh"], ["a", "c"], ["ro", "m"], ["l", "i"], ["l", "d"], ["incre", "as"], ["f", "rom"], ["st", "r"], ["t", "ra"], ["w", "ater"], ["increas", "es"], ["h", "as"], ["m", "a"], ["ou", "r"], ["can", "cer"], ["cancer", "."], ["pre", "vent"], ["prevent", "s"], ["nerv", "ous"], ["ar", "i"], ["vit", "amin"], ["o", "c"], ["r", "is"], ["s", "p"], ["to", "m"], ["ver", ","], ["t", "r"], ["con", "s"], ["m", "p"], ["n", "ow"], ["a", "ch"], ["d", "s"], ["pl", "an"], ["ele", "ph"], ["de", "fin"], ["air", "plan"], ["airplan", "e"], ["c", "he"], ["o", "we"], ["owe", "ver,"], ["n", "t"], ["bu", "t"], ["w", "he"], ["ic", "al"], ["l", "in"], ["c", "ent"], ["it", "y"], ["l", "es"], ["m", "ay"], ["u", "e"], ["an", "ce"], ["th", "ing"], ["H", "owever,"], ["con", "d"], ["in", "d"], ["ct", "ion"], ["on", "g"], ["e", "ar"], ["h", "and"], ["ex", "a"], ["exa", "ctly"], ["inhibit", "s"], ["bl", "oc"], ["bloc", "king"], ["promo", "ter"], ["buildup", "."], ["it", "ion"], ["eleph", "ant"], ["defin", "ed"], ["sy", "mp"], ["symp", "tom"], ["a", "h"], ["v", "ation"], ["weigh", "s"], ["ref", "r"], ["refr", "ig"], ["refrig", "er"], ["refriger", "at"], ["refrigerat", "or"]], "vocab": {"\n": 0, " ": 1, "!": 2, "&": 3, "(": 4, ")": 5, ",": 6, "-": 7, ".": 8, "0": 9, "1": 10, "2": 11, "3": 12, "4": 13, "5": 14, "6": 15, "7": 16, "8": 17, "9": 18, ":": 19, ";": 20, "?": 21, "A": 22, "B": 23, "C": 24, "D": 25, "E": 26, "F": 27, "G": 28, "H": 29, "I": 30, "J": 31, "K": 32, "L": 33, "M": 34, "N": 35, "O": 36, "P": 37, "R": 38, "S": 39, "T": 40, "U": 41, "V": 42, "W": 43, "X": 44, "Y": 45, "[": 46, "]": 47, "_": 48, "a": 49, "b": 50, "c": 51, "d": 52, "e": 53, "f": 54, "g": 55, "h": 56, "i": 57, "j": 58, "k": 59, "l": 60, "m": 61, "n": 62, "o": 63, "p": 64, "q": 65, "r": 66, "s": 67, "t": 68, "u": 69, "v": 70, "w": 71, "x": 72, "y": 73, "z": 74, "\u2014": 75, "\u2019": 76, "\u201c": 77, "\u201d": 78, "he": 79, "the": 80, "in": 81, "es": 82, "re": 83, "at": 84, "an": 85, "\n\n": 86, "on": 87, "er": 88, "se": 89, "The": 90, "to": 91, "it": 92, "le": 93, "ly": 94, "en": 95, "us": 96, "is": 97, "ar": 98, "al": 99, "and": 100, "th": 101, "ess": 102, "of": 103, "as": 104, "ing": 105, "ou": 106, "ct": 107, "ed": 108, "or": 109, "am": 110, "ent": 111, "ca": 112, "ic": 113, "ro": 114, "ion": 115, "di": 116, "caus": 117, "causes": 118, "il": 119, "we": 120, "du": 121, "st": 122, "reat": 123, "ig": 124, "ness": 125, "bu": 126, "reath": 127, "ag": 128, "ctly": 129, "pro": 130, "ex": 131, "un": 132, "less": 133, "reathless": 134, "reathlessness": 135, "ce": 136, "wh": 137, "mo": 138, "qu": 139, "breathlessness": 140, "so": 141, "ad": 142, "dire": 143, "im": 144, "be": 145, "indire": 146, "indirectly": 147, "that": 148, "age": 149, "ly,": 150, "co": 151, "ve": 152, "ow": 153, "you": 154, "onse": 155, "quent": 156, "can": 157, "igh": 158, "onsequent": 159, "Consequent": 160, "Consequently,": 161, "con": 162, "s.": 163, "de": 164, "et": 165, "ph": 166, "lat": 167, "ci": 168, "  ": 169, "ch": 170, "dam": 171, "ra": 172, "ung": 173, "damage": 174, "ver": 175, "ir": 176, "art": 177, "buil": 178, "buildu": 179, "buildup": 180, "pl": 181, "su": 182, "alth": 183, "ha": 184, "se.": 185, "ich": 186, "erci": 187, "lung": 188, "health": 189, "lead": 190, "leads": 191, "me": 192, "ous": 193, "fl": 194, "sy": 195, "ot": 196, "ke": 197, "ame": 198, "ter": 199, "cand": 200, "which": 201, "ib": 202, "exerci": 203, "ill": 204, "king": 205, "kg": 206, "ul": 207, "all": 208, "ay": 209, "weigh": 210, "ther": 211, "relat": 212, "breathlessness.": 213, "related": 214, "com": 215, "fe": 216, "ant": 217, "duc": 218, "per": 219, "inc": 220, "id": 221, "have": 222, "ation": 223, "nd": 224, "ep": 225, "for": 226, "ust": 227, "ur": 228, "air": 229, "candle": 230, "health.": 231, "if": 232, "flame": 233, "ves": 234, "are": 235, "ffe": 236, "out": 237, "this": 238, "ia": 239, "leep": 240, "ab": 241, "ut": 242, "ste": 243, "ol": 244, "bl": 245, "res": 246, "um": 247, "by": 248, "not": 249, "tar": 250, "hib": 251, "hibit": 252, "one": 253, "ner": 254, "will": 255, "inhibit": 256, "reduc": 257, "m.": 258, "up": 259, "ap": 260, "ri": 261, "what": 262, "    ": 263, "do": 264, "es.": 265, "promo": 266, "via": 267, "sleep": 268, "cer": 269, "syste": 270, "kg.": 271, "other": 272, "ta": 273, "bur": 274, "burn": 275, "incre": 276, "sea": 277, "vit": 278, "disea": 279, "impro": 280, "And": 281, "ith": 282, "po": 283, "with": 284, "was": 285, "sed": 286, "fin": 287, "ref": 288, "see": 289, "heart": 290, "vent": 291, "ele": 292, "disease.": 293, "damage.": 294, "reduces": 295, "improves": 296, "Smo": 297, "Smoking": 298, "nerv": 299, "system": 300, "ight": 301, "oo": 302, "ate": 303, "ater": 304, "here": 305, "effe": 306, "effect": 307, "ts": 308, "act": 309, "ll": 310, "sh": 311, "amin": 312, "red": 313, "part": 314, "Tar": 315, "exercise.": 316, "exercise": 317, "pre": 318, "gh": 319, "ast": 320, "ough": 321, "ac": 322, "rom": 323, "li": 324, "ld": 325, "increas": 326, "from": 327, "str": 328, "tra": 329, "water": 330, "increases": 331, "has": 332, "ma": 333, "our": 334, "cancer": 335, "cancer.": 336, "prevent": 337, "prevents": 338, "nervous": 339, "ari": 340, "vitamin": 341, "oc": 342, "ris": 343, "sp": 344, "tom": 345, "ver,": 346, "tr": 347, "cons": 348, "mp": 349, "now": 350, "ach": 351, "ds": 352, "plan": 353, "eleph": 354, "defin": 355, "airplan": 356, "airplane": 357, "che": 358, "owe": 359, "owever,": 360, "nt": 361, "but": 362, "whe": 363, "ical": 364, "lin": 365, "cent": 366, "ity": 367, "les": 368, "may": 369, "ue": 370, "ance": 371, "thing": 372, "However,": 373, "cond": 374, "ind": 375, "ction": 376, "ong": 377, "ear": 378, "hand": 379, "exa": 380, "exactly": 381, "inhibits": 382, "bloc": 383, "blocking": 384, "promoter": 385, "buildup.": 386, "ition": 387, "elephant": 388, "defined": 389, "symp": 390, "symptom": 391, "ah": 392, "vation": 393, "weighs": 394, "refr": 395, "refrig": 396, "refriger": 397, "refrigerat": 398, "refrigerator": 399}, "itos": {"0": "\n", "1": " ", "2": "!", "3": "&", "4": "(", "5": ")", "6": ",", "7": "-", "8": ".", "9": "0", "10": "1", "11": "2", "12": "3", "13": "4", "14": "5", "15": "6", "16": "7", "17": "8", "18": "9", "19": ":", "20": ";", "21": "?", "22": "A", "23": "B", "24": "C", "25": "D", "26": "E", "27": "F", "28": "G", "29": "H", "30": "I", "31": "J", "32": "K", "33": "L", "34": "M", "35": "N", "36": "O", "37": "P", "38": "R", "39": "S", "40": "T", "41": "U", "42": "V", "43": "W", "44": "X", "45": "Y", "46": "[", "47": "]", "48": "_", "49": "a", "50": "b", "51": "c", "52": "d", "53": "e", "54": "f", "55": "g", "56": "h", "57": "i", "58": "j", "59": "k", "60": "l", "61": "m", "62": "n", "63": "o", "64": "p", "65": "q", "66": "r", "67": "s", "68": "t", "69": "u", "70": "v", "71": "w", "72": "x", "73": "y", "74": "z", "75": "\u2014", "76": "\u2019", "77": "\u201c", "78": "\u201d", "79": "he", "80": "the", "81": "in", "82": "es", "83": "re", "84": "at", "85": "an", "86": "\n\n", "87": "on", "88": "er", "89": "se", "90": "The", "91": "to", "92": "it", "93": "le", "94": "ly", "95": "en", "96": "us", "97": "is", "98": "ar", "99": "al", "100": "and", "101": "th", "102": "ess", "103": "of", "104": "as", "105": "ing", "106": "ou", "107": "ct", "108": "ed", "109": "or", "110": "am", "111": "ent", "112": "ca", "113": "ic", "114": "ro", "115": "ion", "116": "di", "117": "caus", "118": "causes", "119": "il", "120": "we", "121": "du", "122": "st", "123": "reat", "124": "ig", "125": "ness", "126": "bu", "127": "reath", "128": "ag", "129": "ctly", "130": "pro", "131": "ex", "132": "un", "133": "less", "134": "reathless", "135": "reathlessness", "136": "ce", "137": "wh", "138": "mo", "139": "qu", "140": "breathlessness", "141": "so", "142": "ad", "143": "dire", "144": "im", "145": "be", "146": "indire", "147": "indirectly", "148": "that", "149": "age", "150": "ly,", "151": "co", "152": "ve", "153": "ow", "154": "you", "155": "onse", "156": "quent", "157": "can", "158": "igh", "159": "onsequent", "160": "Consequent", "161": "Consequently,", "162": "con", "163": "s.", "164": "de", "165": "et", "166": "ph", "167": "lat", "168": "ci", "169": "  ", "170": "ch", "171": "dam", "172": "ra", "173": "ung", "174": "damage", "175": "ver", "176": "ir", "177": "art", "178": "buil", "179": "buildu", "180": "buildup", "181": "pl", "182": "su", "183": "alth", "184": "ha", "185": "se.", "186": "ich", "187": "erci", "188": "lung", "189": "health", "190": "lead", "191": "leads", "192": "me", "193": "ous", "194": "fl", "195": "sy", "196": "ot", "197": "ke", "198": "ame", "199": "ter", "200": "cand", "201": "which", "202": "ib", "203": "exerci", "204": "ill", "205": "king", "206": "kg", "207": "ul", "208": "all", "209": "ay", "210": "weigh", "211": "ther", "212": "relat", "213": "breathlessness.", "214": "related", "215": "com", "216": "fe", "217": "ant", "218": "duc", "219": "per", "220": "inc", "221": "id", "222": "have", "223": "ation", "224": "nd", "225": "ep", "226": "for", "227": "ust", "228": "ur", "229": "air", "230": "candle", "231": "health.", "232": "if", "233": "flame", "234": "ves", "235": "are", "236": "ffe", "237": "out", "238": "this", "239": "ia", "240": "leep", "241": "ab", "242": "ut", "243": "ste", "244": "ol", "245": "bl", "246": "res", "247": "um", "248": "by", "249": "not", "250": "tar", "251": "hib", "252": "hibit", "253": "one", "254": "ner", "255": "will", "256": "inhibit", "257": "reduc", "258": "m.", "259": "up", "260": "ap", "261": "ri", "262": "what", "263": "    ", "264": "do", "265": "es.", "266": "promo", "267": "via", "268": "sleep", "269": "cer", "270": "syste", "271": "kg.", "272": "other", "273": "ta", "274": "bur", "275": "burn", "276": "incre", "277": "sea", "278": "vit", "279": "disea", "280": "impro", "281": "And", "282": "ith", "283": "po", "284": "with", "285": "was", "286": "sed", "287": "fin", "288": "ref", "289": "see", "290": "heart", "291": "vent", "292": "ele", "293": "disease.", "294": "damage.", "295": "reduces", "296": "improves", "297": "Smo", "298": "Smoking", "299": "nerv", "300": "system", "301": "ight", "302": "oo", "303": "ate", "304": "ater", "305": "here", "306": "effe", "307": "effect", "308": "ts", "309": "act", "310": "ll", "311": "sh", "312": "amin", "313": "red", "314": "part", "315": "Tar", "316": "exercise.", "317": "exercise", "318": "pre", "319": "gh", "320": "ast", "321": "ough", "322": "ac", "323": "rom", "324": "li", "325": "ld", "326": "increas", "327": "from", "328": "str", "329": "tra", "330": "water", "331": "increases", "332": "has", "333": "ma", "334": "our", "335": "cancer", "336": "cancer.", "337": "prevent", "338": "prevents", "339": "nervous", "340": "ari", "341": "vitamin", "342": "oc", "343": "ris", "344": "sp", "345": "tom", "346": "ver,", "347": "tr", "348": "cons", "349": "mp", "350": "now", "351": "ach", "352": "ds", "353": "plan", "354": "eleph", "355": "defin", "356": "airplan", "357": "airplane", "358": "che", "359": "owe", "360": "owever,", "361": "nt", "362": "but", "363": "whe", "364": "ical", "365": "lin", "366": "cent", "367": "ity", "368": "les", "369": "may", "370": "ue", "371": "ance", "372": "thing", "373": "However,", "374": "cond", "375": "ind", "376": "ction", "377": "ong", "378": "ear", "379": "hand", "380": "exa", "381": "exactly", "382": "inhibits", "383": "bloc", "384": "blocking", "385": "promoter", "386": "buildup.", "387": "ition", "388": "elephant", "389": "defined", "390": "symp", "391": "symptom", "392": "ah", "393": "vation", "394": "weighs", "395": "refr", "396": "refrig", "397": "refriger", "398": "refrigerat", "399": "refrigerator"}}