{"merges": [["t", "h"], ["e", "s"], ["r", "e"], ["i", "n"], ["th", "e"], ["es", "s"], ["s", "e"], ["\n", "\n"], ["h", "e"], ["e", "r"], ["l", "y"], ["o", "n"], ["c", "a"], ["t", "ly"], ["a", "r"], ["re", "a"], ["t", "o"], ["d", "i"], ["e", "n"], ["u", "s"], ["l", "e"], ["n", "ess"], ["rea", "th"], ["l", "ess"], ["reath", "less"], ["reathless", "ness"], ["n", "d"], ["m", "a"], ["b", "reathlessness"], ["d", "u"], ["T", "he"], ["c", "tly"], ["in", "g"], ["ca", "us"], ["a", "t"], ["caus", "es"], ["i", "t"], ["a", "l"], ["i", "l"], ["r", "o"], ["g", "e"], ["u", "n"], ["di", "re"], ["d", "a"], ["m", "o"], ["e", "x"], ["in", "dire"], ["indire", "ctly"], ["i", "s"], ["da", "ma"], ["b", "u"], ["un", "g"], ["dama", "ge"], ["q", "u"], ["p", "ro"], ["a", "nd"], ["c", "i"], ["bu", "il"], ["buil", "du"], ["buildu", "p"], ["en", "tly"], ["on", "se"], ["o", "f"], ["onse", "qu"], ["onsequ", "ently"], ["C", "onsequently"], ["Consequently", ","], ["a", "d"], ["er", "ci"], ["erci", "se"], ["l", "ung"], ["h", "i"], ["ex", "ercise"], ["i", "on"], ["e", "d"], ["breathlessness", "."], ["le", "ad"], ["lead", "s"], ["o", "u"], ["k", "ing"], ["w", "e"], ["al", "th"], ["he", "alth"], ["s", "t"], ["s", "o"], ["health", "."], ["o", "r"], [" ", " "], ["en", "t"], ["i", "a"], ["a", "s"], ["t", "ar"], ["ca", "n"], ["b", "it"], ["ar", "t"], ["in", "hi"], ["inhi", "bit"], ["pro", "mo"], ["promo", "t"], ["v", "ia"], ["e", "t"], ["a", "n"], ["du", "c"], ["l", "o"], ["c", "h"], ["a", "se"], ["m", "e"], ["v", "er"], ["di", "se"], ["dise", "ase"], ["i", "g"], ["he", "art"], ["damage", "."], ["re", "duc"], ["S", "mo"], ["Smo", "king"], ["disease", "."], ["i", "m"], ["reduc", "es"], ["c", "t"], ["T", "ar"], ["exercise", "."], ["c", "e"], ["the", "r"], ["v", "e"], ["w", "h"], ["d", "e"], ["l", "a"], ["A", "nd"], ["v", "es"], ["im", "pro"], ["impro", "ves"], ["y", "ou"], ["o", "we"], ["c", "er"], ["b", "lo"], ["r", "a"], ["b", "e"], ["s", "."], ["ver", ","], ["wh", "at"], ["o", "ther"], ["c", "o"], ["u", "l"], ["owe", "ver,"], ["v", "ent"], ["th", "at"], ["ig", "h"], ["c", "on"], ["n", "o"], ["p", "re"], ["H", "owever,"], ["c", "king"], ["buildup", "."], ["inhibit", "s"], ["blo", "cking"], ["promot", "er"], ["p", "h"], ["can", "cer"], ["cancer", "."], ["pre", "vent"], ["prevent", "s"], ["  ", "  "], ["ex", "a"], ["h", "and"], ["h", "a"], ["exa", "ctly"], ["O", "n"], ["hand", ","], ["Y", "et"], ["promot", "es"], ["inhibit", "ion"], ["i", "r"], ["e", "p"], ["r", "i"], ["s", "u"], ["ca", "nd"], ["l", "at"], ["s", "y"], ["le", "ep"], ["o", "us"], ["w", "i"], ["k", "g"], ["ha", "ve"], ["f", "f"], ["i", "f"], ["w", "hi"], ["we", "igh"], ["whi", "ch"], ["s", "leep"], ["re", "lat"], ["relat", "ed"], ["m", "p"], ["o", "w"], ["a", "p"], ["u", "t"], ["f", "or"], ["a", "re"], ["r", "es"], ["u", "p"], ["k", "e"], ["ff", "e"], ["in", "c"], ["t", "ion"], ["to", "r"], ["b", "y"], ["t", "er"], ["B", "reathlessness"], ["L", "ung"], ["l", "i"], ["ou", "t"], ["il", "l"], ["s", "i"], ["on", "e"], ["no", "t"], ["st", "e"], ["r", "ess"], ["at", "ion"], ["m", "."], ["l", "u"], ["a", "m"], ["u", "r"], ["p", "er"], ["d", "o"], ["n", "er"], ["t", "a"], ["cand", "le"], ["f", "la"], ["a", "ir"], ["es", "."], ["sy", "ste"], ["kg", "."], ["l", "d"], ["ca", "l"], ["ct", "ion"], ["fla", "me"], ["inc", "rea"], ["a", "b"], ["v", "it"], ["in", "e"], ["re", "f"], ["s", "h"], ["he", "re"], ["    ", "    "], ["t", "s"], ["l", "l"], ["w", "a"], ["th", "is"], ["c", "k"], ["e", "le"], ["re", "d"], ["ner", "v"], ["g", "h"], ["t", "ra"], ["g", "es"], ["p", "l"], ["wi", "th"], ["us", "t"], ["e", "ffe"], ["effe", "ct"], ["co", "m"], ["st", "ress"], ["an", "t"], ["s", "es"], ["o", "d"], ["i", "d"], ["w", "as"], ["al", "l"], ["p", "e"], ["g", "o"], ["se", "e"], ["f", "in"], ["ar", "i"], ["h", "as"], ["to", "m"], ["vit", "am"], ["vitam", "in"], ["nerv", "ous"], ["syste", "m"], ["increa", "ses"], ["at", "e"], ["p", "o"], ["ma", "n"], ["igh", "t"], ["r", "is"], ["u", "m"], ["n", "t"], ["w", "ill"], ["ro", "u"], ["it", "y"], ["h", "o"], ["i", "ma"], ["e", "l"], ["cand", "l"], ["dama", "ges"], ["E", "x"], ["Ex", "ercise"], ["ele", "ph"], ["air", "pl"], ["airpl", "an"], ["airplan", "e"], ["on", "g"], ["i", "c"], ["de", "fin"], ["u", "se"], ["a", "ct"], ["no", "w"], ["wa", "y"], ["l", "in"], ["lo", "w"], ["bu", "t"], ["e", "ar"], ["p", "la"], ["it", "t"], ["ou", "r"], ["c", "he"], ["c", "ent"], ["or", "d"], ["candl", "es"], ["th", "ing"], ["eleph", "ant"], ["sy", "mp"]], "vocab": {"\n": 0, " ": 1, "!": 2, "&": 3, "(": 4, ")": 5, ",": 6, "-": 7, ".": 8, "0": 9, "1": 10, "2": 11, "3": 12, "4": 13, "5": 14, "6": 15, "8": 16, "9": 17, ":": 18, ";": 19, "?": 20, "A": 21, "B": 22, "C": 23, "D": 24, "E": 25, "F": 26, "G": 27, "H": 28, "I": 29, "J": 30, "K": 31, "L": 32, "M": 33, "N": 34, "O": 35, "P": 36, "R": 37, "S": 38, "T": 39, "U": 40, "V": 41, "W": 42, "X": 43, "Y": 44, "[": 45, "]": 46, "_": 47, "a": 48, "b": 49, "c": 50, "d": 51, "e": 52, "f": 53, "g": 54, "h": 55, "i": 56, "j": 57, "k": 58, "l": 59, "m": 60, "n": 61, "o": 62, "p": 63, "q": 64, "r": 65, "s": 66, "t": 67, "u": 68, "v": 69, "w": 70, "x": 71, "y": 72, "z": 73, "\u2014": 74, "\u2019": 75, "\u201c": 76, "\u201d": 77, "th": 78, "es": 79, "re": 80, "in": 81, "the": 82, "ess": 83, "se": 84, "\n\n": 85, "he": 86, "er": 87, "ly": 88, "on": 89, "ca": 90, "tly": 91, "ar": 92, "rea": 93, "to": 94, "di": 95, "en": 96, "us": 97, "le": 98, "ness": 99, "reath": 100, "less": 101, "reathless": 102, "reathlessness": 103, "nd": 104, "ma": 105, "breathlessness": 106, "du": 107, "The": 108, "ctly": 109, "ing": 110, "caus": 111, "at": 112, "causes": 113, "it": 114, "al": 115, "il": 116, "ro": 117, "ge": 118, "un": 119, "dire": 120, "da": 121, "mo": 122, "ex": 123, "indire": 124, "indirectly": 125, "is": 126, "dama": 127, "bu": 128, "ung": 129, "damage": 130, "qu": 131, "pro": 132, "and": 133, "ci": 134, "buil": 135, "buildu": 136, "buildup": 137, "ently": 138, "onse": 139, "of": 140, "onsequ": 141, "onsequently": 142, "Consequently": 143, "Consequently,": 144, "ad": 145, "erci": 146, "ercise": 147, "lung": 148, "hi": 149, "exercise": 150, "ion": 151, "ed": 152, "breathlessness.": 153, "lead": 154, "leads": 155, "ou": 156, "king": 157, "we": 158, "alth": 159, "health": 160, "st": 161, "so": 162, "health.": 163, "or": 164, "  ": 165, "ent": 166, "ia": 167, "as": 168, "tar": 169, "can": 170, "bit": 171, "art": 172, "inhi": 173, "inhibit": 174, "promo": 175, "promot": 176, "via": 177, "et": 178, "an": 179, "duc": 180, "lo": 181, "ch": 182, "ase": 183, "me": 184, "ver": 185, "dise": 186, "disease": 187, "ig": 188, "heart": 189, "damage.": 190, "reduc": 191, "Smo": 192, "Smoking": 193, "disease.": 194, "im": 195, "reduces": 196, "ct": 197, "Tar": 198, "exercise.": 199, "ce": 200, "ther": 201, "ve": 202, "wh": 203, "de": 204, "la": 205, "And": 206, "ves": 207, "impro": 208, "improves": 209, "you": 210, "owe": 211, "cer": 212, "blo": 213, "ra": 214, "be": 215, "s.": 216, "ver,": 217, "what": 218, "other": 219, "co": 220, "ul": 221, "owever,": 222, "vent": 223, "that": 224, "igh": 225, "con": 226, "no": 227, "pre": 228, "However,": 229, "cking": 230, "buildup.": 231, "inhibits": 232, "blocking": 233, "promoter": 234, "ph": 235, "cancer": 236, "cancer.": 237, "prevent": 238, "prevents": 239, "    ": 240, "exa": 241, "hand": 242, "ha": 243, "exactly": 244, "On": 245, "hand,": 246, "Yet": 247, "promotes": 248, "inhibition": 249, "ir": 250, "ep": 251, "ri": 252, "su": 253, "cand": 254, "lat": 255, "sy": 256, "leep": 257, "ous": 258, "wi": 259, "kg": 260, "have": 261, "ff": 262, "if": 263, "whi": 264, "weigh": 265, "which": 266, "sleep": 267, "relat": 268, "related": 269, "mp": 270, "ow": 271, "ap": 272, "ut": 273, "for": 274, "are": 275, "res": 276, "up": 277, "ke": 278, "ffe": 279, "inc": 280, "tion": 281, "tor": 282, "by": 283, "ter": 284, "Breathlessness": 285, "Lung": 286, "li": 287, "out": 288, "ill": 289, "si": 290, "one": 291, "not": 292, "ste": 293, "ress": 294, "ation": 295, "m.": 296, "lu": 297, "am": 298, "ur": 299, "per": 300, "do": 301, "ner": 302, "ta": 303, "candle": 304, "fla": 305, "air": 306, "es.": 307, "syste": 308, "kg.": 309, "ld": 310, "cal": 311, "ction": 312, "flame": 313, "increa": 314, "ab": 315, "vit": 316, "ine": 317, "ref": 318, "sh": 319, "here": 320, "        ": 321, "ts": 322, "ll": 323, "wa": 324, "this": 325, "ck": 326, "ele": 327, "red": 328, "nerv": 329, "gh": 330, "tra": 331, "ges": 332, "pl": 333, "with": 334, "ust": 335, "effe": 336, "effect": 337, "com": 338, "stress": 339, "ant": 340, "ses": 341, "od": 342, "id": 343, "was": 344, "all": 345, "pe": 346, "go": 347, "see": 348, "fin": 349, "ari": 350, "has": 351, "tom": 352, "vitam": 353, "vitamin": 354, "nervous": 355, "system": 356, "increases": 357, "ate": 358, "po": 359, "man": 360, "ight": 361, "ris": 362, "um": 363, "nt": 364, "will": 365, "rou": 366, "ity": 367, "ho": 368, "ima": 369, "el": 370, "candl": 371, "damages": 372, "Ex": 373, "Exercise": 374, "eleph": 375, "airpl": 376, "airplan": 377, "airplane": 378, "ong": 379, "ic": 380, "defin": 381, "use": 382, "act": 383, "now": 384, "way": 385, "lin": 386, "low": 387, "but": 388, "ear": 389, "pla": 390, "itt": 391, "our": 392, "che": 393, "cent": 394, "ord": 395, "candles": 396, "thing": 397, "elephant": 398, "symp": 399}, "itos": {"0": "\n", "1": " ", "2": "!", "3": "&", "4": "(", "5": ")", "6": ",", "7": "-", "8": ".", "9": "0", "10": "1", "11": "2", "12": "3", "13": "4", "14": "5", "15": "6", "16": "8", "17": "9", "18": ":", "19": ";", "20": "?", "21": "A", "22": "B", "23": "C", "24": "D", "25": "E", "26": "F", "27": "G", "28": "H", "29": "I", "30": "J", "31": "K", "32": "L", "33": "M", "34": "N", "35": "O", "36": "P", "37": "R", "38": "S", "39": "T", "40": "U", "41": "V", "42": "W", "43": "X", "44": "Y", "45": "[", "46": "]", "47": "_", "48": "a", "49": "b", "50": "c", "51": "d", "52": "e", "53": "f", "54": "g", "55": "h", "56": "i", "57": "j", "58": "k", "59": "l", "60": "m", "61": "n", "62": "o", "63": "p", "64": "q", "65": "r", "66": "s", "67": "t", "68": "u", "69": "v", "70": "w", "71": "x", "72": "y", "73": "z", "74": "\u2014", "75": "\u2019", "76": "\u201c", "77": "\u201d", "78": "th", "79": "es", "80": "re", "81": "in", "82": "the", "83": "ess", "84": "se", "85": "\n\n", "86": "he", "87": "er", "88": "ly", "89": "on", "90": "ca", "91": "tly", "92": "ar", "93": "rea", "94": "to", "95": "di", "96": "en", "97": "us", "98": "le", "99": "ness", "100": "reath", "101": "less", "102": "reathless", "103": "reathlessness", "104": "nd", "105": "ma", "106": "breathlessness", "107": "du", "108": "The", "109": "ctly", "110": "ing", "111": "caus", "112": "at", "113": "causes", "114": "it", "115": "al", "116": "il", "117": "ro", "118": "ge", "119": "un", "120": "dire", "121": "da", "122": "mo", "123": "ex", "124": "indire", "125": "indirectly", "126": "is", "127": "dama", "128": "bu", "129": "ung", "130": "damage", "131": "qu", "132": "pro", "133": "and", "134": "ci", "135": "buil", "136": "buildu", "137": "buildup", "138": "ently", "139": "onse", "140": "of", "141": "onsequ", "142": "onsequently", "143": "Consequently", "144": "Consequently,", "145": "ad", "146": "erci", "147": "ercise", "148": "lung", "149": "hi", "150": "exercise", "151": "ion", "152": "ed", "153": "breathlessness.", "154": "lead", "155": "leads", "156": "ou", "157": "king", "158": "we", "159": "alth", "160": "health", "161": "st", "162": "so", "163": "health.", "164": "or", "165": "  ", "166": "ent", "167": "ia", "168": "as", "169": "tar", "170": "can", "171": "bit", "172": "art", "173": "inhi", "174": "inhibit", "175": "promo", "176": "promot", "177": "via", "178": "et", "179": "an", "180": "duc", "181": "lo", "182": "ch", "183": "ase", "184": "me", "185": "ver", "186": "dise", "187": "disease", "188": "ig", "189": "heart", "190": "damage.", "191": "reduc", "192": "Smo", "193": "Smoking", "194": "disease.", "195": "im", "196": "reduces", "197": "ct", "198": "Tar", "199": "exercise.", "200": "ce", "201": "ther", "202": "ve", "203": "wh", "204": "de", "205": "la", "206": "And", "207": "ves", "208": "impro", "209": "improves", "210": "you", "211": "owe", "212": "cer", "213": "blo", "214": "ra", "215": "be", "216": "s.", "217": "ver,", "218": "what", "219": "other", "220": "co", "221": "ul", "222": "owever,", "223": "vent", "224": "that", "225": "igh", "226": "con", "227": "no", "228": "pre", "229": "However,", "230": "cking", "231": "buildup.", "232": "inhibits", "233": "blocking", "234": "promoter", "235": "ph", "236": "cancer", "237": "cancer.", "238": "prevent", "239": "prevents", "240": "    ", "241": "exa", "242": "hand", "243": "ha", "244": "exactly", "245": "On", "246": "hand,", "247": "Yet", "248": "promotes", "249": "inhibition", "250": "ir", "251": "ep", "252": "ri", "253": "su", "254": "cand", "255": "lat", "256": "sy", "257": "leep", "258": "ous", "259": "wi", "260": "kg", "261": "have", "262": "ff", "263": "if", "264": "whi", "265": "weigh", "266": "which", "267": "sleep", "268": "relat", "269": "related", "270": "mp", "271": "ow", "272": "ap", "273": "ut", "274": "for", "275": "are", "276": "res", "277": "up", "278": "ke", "279": "ffe", "280": "inc", "281": "tion", "282": "tor", "283": "by", "284": "ter", "285": "Breathlessness", "286": "Lung", "287": "li", "288": "out", "289": "ill", "290": "si", "291": "one", "292": "not", "293": "ste", "294": "ress", "295": "ation", "296": "m.", "297": "lu", "298": "am", "299": "ur", "300": "per", "301": "do", "302": "ner", "303": "ta", "304": "candle", "305": "fla", "306": "air", "307": "es.", "308": "syste", "309": "kg.", "310": "ld", "311": "cal", "312": "ction", "313": "flame", "314": "increa", "315": "ab", "316": "vit", "317": "ine", "318": "ref", "319": "sh", "320": "here", "321": "        ", "322": "ts", "323": "ll", "324": "wa", "325": "this", "326": "ck", "327": "ele", "328": "red", "329": "nerv", "330": "gh", "331": "tra", "332": "ges", "333": "pl", "334": "with", "335": "ust", "336": "effe", "337": "effect", "338": "com", "339": "stress", "340": "ant", "341": "ses", "342": "od", "343": "id", "344": "was", "345": "all", "346": "pe", "347": "go", "348": "see", "349": "fin", "350": "ari", "351": "has", "352": "tom", "353": "vitam", "354": "vitamin", "355": "nervous", "356": "system", "357": "increases", "358": "ate", "359": "po", "360": "man", "361": "ight", "362": "ris", "363": "um", "364": "nt", "365": "will", "366": "rou", "367": "ity", "368": "ho", "369": "ima", "370": "el", "371": "candl", "372": "damages", "373": "Ex", "374": "Exercise", "375": "eleph", "376": "airpl", "377": "airplan", "378": "airplane", "379": "ong", "380": "ic", "381": "defin", "382": "use", "383": "act", "384": "now", "385": "way", "386": "lin", "387": "low", "388": "but", "389": "ear", "390": "pla", "391": "itt", "392": "our", "393": "che", "394": "cent", "395": "ord", "396": "candles", "397": "thing", "398": "elephant", "399": "symp"}}