{"merges": [["t", "h"], ["e", "s"], ["th", "e"], ["r", "e"], ["i", "n"], ["a", "n"], ["i", "s"], ["es", "s"], ["h", "e"], ["e", "r"], ["o", "n"], ["a", "r"], ["t", "o"], ["u", "s"], ["l", "y"], ["a", "t"], ["an", "d"], ["i", "t"], ["l", "e"], ["o", "u"], ["a", "m"], ["in", "g"], ["re", "a"], ["c", "t"], ["o", "f"], ["c", "a"], ["a", "s"], ["e", "n"], ["n", "ess"], ["e", "."], ["l", "ess"], ["i", "l"], ["rea", "th"], ["reath", "less"], ["reathless", "ness"], ["a", "l"], ["ca", "us"], ["b", "reathlessness"], ["caus", "es"], ["T", "he"], ["d", "u"], ["d", "i"], ["h", "i"], ["u", "n"], ["m", "o"], ["a", "g"], ["ct", "ly"], ["r", "o"], ["w", "e"], ["b", "u"], ["c", "h"], ["di", "re"], ["in", "dire"], ["indire", "ctly"], ["e", "d"], ["d", "am"], ["dam", "ag"], ["un", "g"], ["a", "d"], ["o", "r"], ["e", "x"], ["g", "h"], ["l", "ung"], ["s", "e"], ["en", "t"], ["i", "on"], ["p", "ro"], ["bu", "il"], ["buil", "du"], ["buildu", "p"], ["k", "ing"], ["s", "o"], ["breathlessness", "."], ["e", "t"], ["o", "w"], ["is", "e"], ["i", "gh"], ["y", "ou"], ["s", "t"], ["hi", "ch"], ["er", "c"], ["v", "e"], ["th", "at"], ["b", "e"], ["le", "ad"], ["lead", "s"], ["u", "r"], ["ex", "erc"], ["ar", "t"], ["h", "a"], ["th", "is"], ["m", "e"], ["u", "l"], ["k", "g"], ["c", "an"], ["o", "t"], ["c", "and"], ["v", "i"], ["f", "l"], ["b", "it"], ["damag", "e."], ["t", "er"], ["v", "er"], ["we", "igh"], ["in", "hi"], ["inhi", "bit"], ["t", "ar"], ["pro", "mo"], ["vi", "a"], ["al", "th"], ["S", "mo"], ["Smo", "king"], ["damag", "e"], ["c", "e"], ["he", "alth"], ["ha", "ve"], ["q", "u"], ["health", "."], ["kg", "."], ["n", "d"], ["w", "hich"], ["he", "art"], ["d", "ise"], ["dise", "as"], ["diseas", "e."], ["the", "r"], ["il", "l"], ["i", "d"], ["l", "o"], ["ly", ","], ["c", "o"], ["r", "es"], ["du", "c"], ["am", "e"], ["cand", "le"], ["i", "m"], ["w", "h"], ["a", "y"], ["i", "r"], ["w", "i"], ["n", "ot"], ["n", ","], ["T", "ar"], ["T", "h"], ["t", "ur"], ["f", "or"], ["u", "p"], ["I", "n"], ["ou", "t"], ["r", "a"], ["on", "se"], ["qu", "ent"], ["re", "duc"], ["A", "nd"], ["onse", "quent"], ["i", "f"], ["k", "e"], ["al", "l"], ["C", "onsequent"], ["Consequent", "ly,"], ["Th", "is"], ["u", "t"], ["a", "re"], ["reduc", "es"], ["exerc", "is"], ["p", "h"], ["b", "y"], ["exercis", "e."], ["exerc", "ise"], ["fl", "ame"], ["tur", "n,"], ["o", "ther"], ["c", "on"], ["buildup", "."], ["t", ","], ["a", "p"], ["b", "lo"], ["c", "king"], ["inhibit", "s"], ["blo", "cking"], ["promo", "ter"], ["p", "l"], ["a", "b"], ["W", "hich"], ["wh", "at"], ["l", "d"], ["Y", "et"], ["he", "re"], ["s", "u"], ["m", "."], ["us", "t"], ["se", "e"], ["res", "ul"], ["p", "re"], ["s", "."], ["w", "ill"], ["c", "er"], ["on", "e"], ["A", "s"], ["t", "es"], ["re", "f"], ["promo", "tes"], ["inhibit", "ion"], ["ver", ","], ["resul", "t,"], ["o", "we"], ["ent", "s"], ["e", "p"], ["weigh", "s"], ["ou", "r"], ["h", "and"], ["owe", "ver,"], ["g", "o"], ["v", "es"], ["ct", "ion"], ["pre", "v"], ["prev", "ents"], ["i", "c"], ["l", "es"], ["t", "a"], ["o", "us"], ["wi", "th"], ["p", "e"], ["o", "re"], ["f", "f"], ["d", "o"], ["n", "ow"], ["H", "owever,"], ["c", "he"], ["co", "m"], ["at", "ion"], ["e", "l"], ["th", "ing"], ["an", "t"], ["a", "c"], ["cand", "les"], ["can", "cer"], ["cancer", "."], ["ou", "gh"], ["igh", "t"], ["O", "n"], ["hand", ","], ["u", "m"], ["s", "h"], ["p", "art"], ["im", "pro"], ["a", "h"], ["ro", "m"], ["w", "ay"], ["impro", "ves"], ["che", "et"], ["cheet", "ah"], ["f", "rom"], ["st", "e"], ["e", "re"], ["l", "l"], ["it", "t"], ["in", "d"], ["in", "to"], ["r", "i"], ["l", "i"], ["bu", "t"], ["ver", "y"], ["ex", "a"], ["exa", "ctly"], ["s", "y"], ["rea", "ch"], ["e", "le"], ["p", "er"], ["es", "e"], ["for", "m"], ["m", "ad"], ["Y", "ou"], ["l", "as"], ["ou", "ld"], ["c", "ur"], ["the", "y"], ["he", "n"], ["l", "itt"], ["litt", "le"], ["ref", "ore"], ["n", "t"], ["m", "a"], ["a", "ir"], ["h", "as"], ["p", "o"], ["s", "id"], ["d", "er"], ["it", "s"], ["c", "k"], ["in", "e"], ["c", "m."], ["o", "d"], ["s", ","], ["so", "me"], ["th", "ese"], ["bu", "r"], ["wi", "ck"], ["refore", ","], ["ele", "ph"], ["u", "re"], ["e", "ct"], ["it", "y"], ["h", "o"], ["mad", "e"], ["bur", "n"], ["be", "a"], ["bea", "ut"], ["eleph", "ant"], ["at", "ed"], ["t", "ra"], ["n", "er"], ["d", "e"], ["l", "ight"], ["ow", "n"], ["g", "e"], ["ab", "out"], ["L", "ung"], ["g", "."], ["re", "l"], ["a", "ct"], ["R", "E"]], "vocab": {" ": 0, "!": 1, "&": 2, "(": 3, ")": 4, ",": 5, "-": 6, ".": 7, "0": 8, "1": 9, "2": 10, "3": 11, "4": 12, "5": 13, "6": 14, "7": 15, "8": 16, "9": 17, ":": 18, ";": 19, "?": 20, "A": 21, "B": 22, "C": 23, "D": 24, "E": 25, "F": 26, "G": 27, "H": 28, "I": 29, "J": 30, "K": 31, "L": 32, "M": 33, "N": 34, "O": 35, "P": 36, "R": 37, "S": 38, "T": 39, "U": 40, "V": 41, "W": 42, "X": 43, "Y": 44, "[": 45, "]": 46, "_": 47, "a": 48, "b": 49, "c": 50, "d": 51, "e": 52, "f": 53, "g": 54, "h": 55, "i": 56, "j": 57, "k": 58, "l": 59, "m": 60, "n": 61, "o": 62, "p": 63, "q": 64, "r": 65, "s": 66, "t": 67, "u": 68, "v": 69, "w": 70, "x": 71, "y": 72, "z": 73, "\u2014": 74, "\u2019": 75, "\u201c": 76, "\u201d": 77, "th": 78, "es": 79, "the": 80, "re": 81, "in": 82, "an": 83, "is": 84, "ess": 85, "he": 86, "er": 87, "on": 88, "ar": 89, "to": 90, "us": 91, "ly": 92, "at": 93, "and": 94, "it": 95, "le": 96, "ou": 97, "am": 98, "ing": 99, "rea": 100, "ct": 101, "of": 102, "ca": 103, "as": 104, "en": 105, "ness": 106, "e.": 107, "less": 108, "il": 109, "reath": 110, "reathless": 111, "reathlessness": 112, "al": 113, "caus": 114, "breathlessness": 115, "causes": 116, "The": 117, "du": 118, "di": 119, "hi": 120, "un": 121, "mo": 122, "ag": 123, "ctly": 124, "ro": 125, "we": 126, "bu": 127, "ch": 128, "dire": 129, "indire": 130, "indirectly": 131, "ed": 132, "dam": 133, "damag": 134, "ung": 135, "ad": 136, "or": 137, "ex": 138, "gh": 139, "lung": 140, "se": 141, "ent": 142, "ion": 143, "pro": 144, "buil": 145, "buildu": 146, "buildup": 147, "king": 148, "so": 149, "breathlessness.": 150, "et": 151, "ow": 152, "ise": 153, "igh": 154, "you": 155, "st": 156, "hich": 157, "erc": 158, "ve": 159, "that": 160, "be": 161, "lead": 162, "leads": 163, "ur": 164, "exerc": 165, "art": 166, "ha": 167, "this": 168, "me": 169, "ul": 170, "kg": 171, "can": 172, "ot": 173, "cand": 174, "vi": 175, "fl": 176, "bit": 177, "damage.": 178, "ter": 179, "ver": 180, "weigh": 181, "inhi": 182, "inhibit": 183, "tar": 184, "promo": 185, "via": 186, "alth": 187, "Smo": 188, "Smoking": 189, "damage": 190, "ce": 191, "health": 192, "have": 193, "qu": 194, "health.": 195, "kg.": 196, "nd": 197, "which": 198, "heart": 199, "dise": 200, "diseas": 201, "disease.": 202, "ther": 203, "ill": 204, "id": 205, "lo": 206, "ly,": 207, "co": 208, "res": 209, "duc": 210, "ame": 211, "candle": 212, "im": 213, "wh": 214, "ay": 215, "ir": 216, "wi": 217, "not": 218, "n,": 219, "Tar": 220, "Th": 221, "tur": 222, "for": 223, "up": 224, "In": 225, "out": 226, "ra": 227, "onse": 228, "quent": 229, "reduc": 230, "And": 231, "onsequent": 232, "if": 233, "ke": 234, "all": 235, "Consequent": 236, "Consequently,": 237, "This": 238, "ut": 239, "are": 240, "reduces": 241, "exercis": 242, "ph": 243, "by": 244, "exercise.": 245, "exercise": 246, "flame": 247, "turn,": 248, "other": 249, "con": 250, "buildup.": 251, "t,": 252, "ap": 253, "blo": 254, "cking": 255, "inhibits": 256, "blocking": 257, "promoter": 258, "pl": 259, "ab": 260, "Which": 261, "what": 262, "ld": 263, "Yet": 264, "here": 265, "su": 266, "m.": 267, "ust": 268, "see": 269, "resul": 270, "pre": 271, "s.": 272, "will": 273, "cer": 274, "one": 275, "As": 276, "tes": 277, "ref": 278, "promotes": 279, "inhibition": 280, "ver,": 281, "result,": 282, "owe": 283, "ents": 284, "ep": 285, "weighs": 286, "our": 287, "hand": 288, "owever,": 289, "go": 290, "ves": 291, "ction": 292, "prev": 293, "prevents": 294, "ic": 295, "les": 296, "ta": 297, "ous": 298, "with": 299, "pe": 300, "ore": 301, "ff": 302, "do": 303, "now": 304, "However,": 305, "che": 306, "com": 307, "ation": 308, "el": 309, "thing": 310, "ant": 311, "ac": 312, "candles": 313, "cancer": 314, "cancer.": 315, "ough": 316, "ight": 317, "On": 318, "hand,": 319, "um": 320, "sh": 321, "part": 322, "impro": 323, "ah": 324, "rom": 325, "way": 326, "improves": 327, "cheet": 328, "cheetah": 329, "from": 330, "ste": 331, "ere": 332, "ll": 333, "itt": 334, "ind": 335, "into": 336, "ri": 337, "li": 338, "but": 339, "very": 340, "exa": 341, "exactly": 342, "sy": 343, "reach": 344, "ele": 345, "per": 346, "ese": 347, "form": 348, "mad": 349, "You": 350, "las": 351, "ould": 352, "cur": 353, "they": 354, "hen": 355, "litt": 356, "little": 357, "refore": 358, "nt": 359, "ma": 360, "air": 361, "has": 362, "po": 363, "sid": 364, "der": 365, "its": 366, "ck": 367, "ine": 368, "cm.": 369, "od": 370, "s,": 371, "some": 372, "these": 373, "bur": 374, "wick": 375, "refore,": 376, "eleph": 377, "ure": 378, "ect": 379, "ity": 380, "ho": 381, "made": 382, "burn": 383, "bea": 384, "beaut": 385, "elephant": 386, "ated": 387, "tra": 388, "ner": 389, "de": 390, "light": 391, "own": 392, "ge": 393, "about": 394, "Lung": 395, "g.": 396, "rel": 397, "act": 398, "RE": 399}, "itos": {"0": " ", "1": "!", "2": "&", "3": "(", "4": ")", "5": ",", "6": "-", "7": ".", "8": "0", "9": "1", "10": "2", "11": "3", "12": "4", "13": "5", "14": "6", "15": "7", "16": "8", "17": "9", "18": ":", "19": ";", "20": "?", "21": "A", "22": "B", "23": "C", "24": "D", "25": "E", "26": "F", "27": "G", "28": "H", "29": "I", "30": "J", "31": "K", "32": "L", "33": "M", "34": "N", "35": "O", "36": "P", "37": "R", "38": "S", "39": "T", "40": "U", "41": "V", "42": "W", "43": "X", "44": "Y", "45": "[", "46": "]", "47": "_", "48": "a", "49": "b", "50": "c", "51": "d", "52": "e", "53": "f", "54": "g", "55": "h", "56": "i", "57": "j", "58": "k", "59": "l", "60": "m", "61": "n", "62": "o", "63": "p", "64": "q", "65": "r", "66": "s", "67": "t", "68": "u", "69": "v", "70": "w", "71": "x", "72": "y", "73": "z", "74": "\u2014", "75": "\u2019", "76": "\u201c", "77": "\u201d", "78": "th", "79": "es", "80": "the", "81": "re", "82": "in", "83": "an", "84": "is", "85": "ess", "86": "he", "87": "er", "88": "on", "89": "ar", "90": "to", "91": "us", "92": "ly", "93": "at", "94": "and", "95": "it", "96": "le", "97": "ou", "98": "am", "99": "ing", "100": "rea", "101": "ct", "102": "of", "103": "ca", "104": "as", "105": "en", "106": "ness", "107": "e.", "108": "less", "109": "il", "110": "reath", "111": "reathless", "112": "reathlessness", "113": "al", "114": "caus", "115": "breathlessness", "116": "causes", "117": "The", "118": "du", "119": "di", "120": "hi", "121": "un", "122": "mo", "123": "ag", "124": "ctly", "125": "ro", "126": "we", "127": "bu", "128": "ch", "129": "dire", "130": "indire", "131": "indirectly", "132": "ed", "133": "dam", "134": "damag", "135": "ung", "136": "ad", "137": "or", "138": "ex", "139": "gh", "140": "lung", "141": "se", "142": "ent", "143": "ion", "144": "pro", "145": "buil", "146": "buildu", "147": "buildup", "148": "king", "149": "so", "150": "breathlessness.", "151": "et", "152": "ow", "153": "ise", "154": "igh", "155": "you", "156": "st", "157": "hich", "158": "erc", "159": "ve", "160": "that", "161": "be", "162": "lead", "163": "leads", "164": "ur", "165": "exerc", "166": "art", "167": "ha", "168": "this", "169": "me", "170": "ul", "171": "kg", "172": "can", "173": "ot", "174": "cand", "175": "vi", "176": "fl", "177": "bit", "178": "damage.", "179": "ter", "180": "ver", "181": "weigh", "182": "inhi", "183": "inhibit", "184": "tar", "185": "promo", "186": "via", "187": "alth", "188": "Smo", "189": "Smoking", "190": "damage", "191": "ce", "192": "health", "193": "have", "194": "qu", "195": "health.", "196": "kg.", "197": "nd", "198": "which", "199": "heart", "200": "dise", "201": "diseas", "202": "disease.", "203": "ther", "204": "ill", "205": "id", "206": "lo", "207": "ly,", "208": "co", "209": "res", "210": "duc", "211": "ame", "212": "candle", "213": "im", "214": "wh", "215": "ay", "216": "ir", "217": "wi", "218": "not", "219": "n,", "220": "Tar", "221": "Th", "222": "tur", "223": "for", "224": "up", "225": "In", "226": "out", "227": "ra", "228": "onse", "229": "quent", "230": "reduc", "231": "And", "232": "onsequent", "233": "if", "234": "ke", "235": "all", "236": "Consequent", "237": "Consequently,", "238": "This", "239": "ut", "240": "are", "241": "reduces", "242": "exercis", "243": "ph", "244": "by", "245": "exercise.", "246": "exercise", "247": "flame", "248": "turn,", "249": "other", "250": "con", "251": "buildup.", "252": "t,", "253": "ap", "254": "blo", "255": "cking", "256": "inhibits", "257": "blocking", "258": "promoter", "259": "pl", "260": "ab", "261": "Which", "262": "what", "263": "ld", "264": "Yet", "265": "here", "266": "su", "267": "m.", "268": "ust", "269": "see", "270": "resul", "271": "pre", "272": "s.", "273": "will", "274": "cer", "275": "one", "276": "As", "277": "tes", "278": "ref", "279": "promotes", "280": "inhibition", "281": "ver,", "282": "result,", "283": "owe", "284": "ents", "285": "ep", "286": "weighs", "287": "our", "288": "hand", "289": "owever,", "290": "go", "291": "ves", "292": "ction", "293": "prev", "294": "prevents", "295": "ic", "296": "les", "297": "ta", "298": "ous", "299": "with", "300": "pe", "301": "ore", "302": "ff", "303": "do", "304": "now", "305": "However,", "306": "che", "307": "com", "308": "ation", "309": "el", "310": "thing", "311": "ant", "312": "ac", "313": "candles", "314": "cancer", "315": "cancer.", "316": "ough", "317": "ight", "318": "On", "319": "hand,", "320": "um", "321": "sh", "322": "part", "323": "impro", "324": "ah", "325": "rom", "326": "way", "327": "improves", "328": "cheet", "329": "cheetah", "330": "from", "331": "ste", "332": "ere", "333": "ll", "334": "itt", "335": "ind", "336": "into", "337": "ri", "338": "li", "339": "but", "340": "very", "341": "exa", "342": "exactly", "343": "sy", "344": "reach", "345": "ele", "346": "per", "347": "ese", "348": "form", "349": "mad", "350": "You", "351": "las", "352": "ould", "353": "cur", "354": "they", "355": "hen", "356": "litt", "357": "little", "358": "refore", "359": "nt", "360": "ma", "361": "air", "362": "has", "363": "po", "364": "sid", "365": "der", "366": "its", "367": "ck", "368": "ine", "369": "cm.", "370": "od", "371": "s,", "372": "some", "373": "these", "374": "bur", "375": "wick", "376": "refore,", "377": "eleph", "378": "ure", "379": "ect", "380": "ity", "381": "ho", "382": "made", "383": "burn", "384": "bea", "385": "beaut", "386": "elephant", "387": "ated", "388": "tra", "389": "ner", "390": "de", "391": "light", "392": "own", "393": "ge", "394": "about", "395": "Lung", "396": "g.", "397": "rel", "398": "act", "399": "RE"}}